{
  "version": "1.0",
  "truncation": null,
  "padding": null,
  "added_tokens": [
    {
      "id": 0,
      "content": "<unk>",
      "single_word": false,
      "lstrip": false,
      "rstrip": false,
      "normalized": false,
      "special": true
    },
    {
      "id": 1,
      "content": "<s>",
      "single_word": false,
      "lstrip": false,
      "rstrip": false,
      "normalized": false,
      "special": true
    },
    {
      "id": 2,
      "content": "</s>",
      "single_word": false,
      "lstrip": false,
      "rstrip": false,
      "normalized": false,
      "special": true
    }
  ],
  "normalizer": null,
  "pre_tokenizer": {
    "type": "ByteLevel",
    "add_prefix_space": false,
    "trim_offsets": true,
    "use_regex": true
  },
  "post_processor": null,
  "decoder": {
    "type": "ByteLevel",
    "add_prefix_space": true,
    "trim_offsets": true,
    "use_regex": true
  },
  "model": {
    "type": "BPE",
    "dropout": null,
    "unk_token": null,
    "continuing_subword_prefix": null,
    "end_of_word_suffix": null,
    "fuse_unk": false,
    "byte_fallback": false,
    "ignore_merges": false,
    "vocab": {
      "<unk>": 0,
      "<s>": 1,
      "</s>": 2,
      "!": 3,
      "\"": 4,
      "#": 5,
      "$": 6,
      "%": 7,
      "&": 8,
      "'": 9,
      "(": 10,
      ")": 11,
      "*": 12,
      "+": 13,
      ",": 14,
      "-": 15,
      ".": 16,
      "/": 17,
      "0": 18,
      "1": 19,
      "2": 20,
      "3": 21,
      "4": 22,
      "5": 23,
      "6": 24,
      "7": 25,
      "8": 26,
      "9": 27,
      ":": 28,
      ";": 29,
      "<": 30,
      "=": 31,
      ">": 32,
      "?": 33,
      "@": 34,
      "A": 35,
      "B": 36,
      "C": 37,
      "D": 38,
      "E": 39,
      "F": 40,
      "G": 41,
      "H": 42,
      "I": 43,
      "J": 44,
      "K": 45,
      "L": 46,
      "M": 47,
      "N": 48,
      "O": 49,
      "P": 50,
      "Q": 51,
      "R": 52,
      "S": 53,
      "T": 54,
      "U": 55,
      "V": 56,
      "W": 57,
      "X": 58,
      "Y": 59,
      "Z": 60,
      "[": 61,
      "\\": 62,
      "]": 63,
      "^": 64,
      "_": 65,
      "`": 66,
      "a": 67,
      "b": 68,
      "c": 69,
      "d": 70,
      "e": 71,
      "f": 72,
      "g": 73,
      "h": 74,
      "i": 75,
      "j": 76,
      "k": 77,
      "l": 78,
      "m": 79,
      "n": 80,
      "o": 81,
      "p": 82,
      "q": 83,
      "r": 84,
      "s": 85,
      "t": 86,
      "u": 87,
      "v": 88,
      "w": 89,
      "x": 90,
      "y": 91,
      "z": 92,
      "{": 93,
      "|": 94,
      "}": 95,
      "~": 96,
      "¡": 97,
      "¢": 98,
      "£": 99,
      "¤": 100,
      "¥": 101,
      "¦": 102,
      "§": 103,
      "¨": 104,
      "©": 105,
      "ª": 106,
      "«": 107,
      "¬": 108,
      "®": 109,
      "¯": 110,
      "°": 111,
      "±": 112,
      "²": 113,
      "³": 114,
      "´": 115,
      "µ": 116,
      "¶": 117,
      "·": 118,
      "¸": 119,
      "¹": 120,
      "º": 121,
      "»": 122,
      "¼": 123,
      "½": 124,
      "¾": 125,
      "¿": 126,
      "À": 127,
      "Á": 128,
      "Â": 129,
      "Ã": 130,
      "Ä": 131,
      "Å": 132,
      "Æ": 133,
      "Ç": 134,
      "È": 135,
      "É": 136,
      "Ê": 137,
      "Ë": 138,
      "Ì": 139,
      "Í": 140,
      "Î": 141,
      "Ï": 142,
      "Ð": 143,
      "Ñ": 144,
      "Ò": 145,
      "Ó": 146,
      "Ô": 147,
      "Õ": 148,
      "Ö": 149,
      "×": 150,
      "Ø": 151,
      "Ù": 152,
      "Ú": 153,
      "Û": 154,
      "Ü": 155,
      "Ý": 156,
      "Þ": 157,
      "ß": 158,
      "à": 159,
      "á": 160,
      "â": 161,
      "ã": 162,
      "ä": 163,
      "å": 164,
      "æ": 165,
      "ç": 166,
      "è": 167,
      "é": 168,
      "ê": 169,
      "ë": 170,
      "ì": 171,
      "í": 172,
      "î": 173,
      "ï": 174,
      "ð": 175,
      "ñ": 176,
      "ò": 177,
      "ó": 178,
      "ô": 179,
      "õ": 180,
      "ö": 181,
      "÷": 182,
      "ø": 183,
      "ù": 184,
      "ú": 185,
      "û": 186,
      "ü": 187,
      "ý": 188,
      "þ": 189,
      "ÿ": 190,
      "Ā": 191,
      "ā": 192,
      "Ă": 193,
      "ă": 194,
      "Ą": 195,
      "ą": 196,
      "Ć": 197,
      "ć": 198,
      "Ĉ": 199,
      "ĉ": 200,
      "Ċ": 201,
      "ċ": 202,
      "Č": 203,
      "č": 204,
      "Ď": 205,
      "ď": 206,
      "Đ": 207,
      "đ": 208,
      "Ē": 209,
      "ē": 210,
      "Ĕ": 211,
      "ĕ": 212,
      "Ė": 213,
      "ė": 214,
      "Ę": 215,
      "ę": 216,
      "Ě": 217,
      "ě": 218,
      "Ĝ": 219,
      "ĝ": 220,
      "Ğ": 221,
      "ğ": 222,
      "Ġ": 223,
      "ġ": 224,
      "Ģ": 225,
      "ģ": 226,
      "Ĥ": 227,
      "ĥ": 228,
      "Ħ": 229,
      "ħ": 230,
      "Ĩ": 231,
      "ĩ": 232,
      "Ī": 233,
      "ī": 234,
      "Ĭ": 235,
      "ĭ": 236,
      "Į": 237,
      "į": 238,
      "İ": 239,
      "ı": 240,
      "Ĳ": 241,
      "ĳ": 242,
      "Ĵ": 243,
      "ĵ": 244,
      "Ķ": 245,
      "ķ": 246,
      "ĸ": 247,
      "Ĺ": 248,
      "ĺ": 249,
      "Ļ": 250,
      "ļ": 251,
      "Ľ": 252,
      "ľ": 253,
      "Ŀ": 254,
      "ŀ": 255,
      "Ł": 256,
      "ł": 257,
      "Ń": 258,
      "ï¼": 259,
      "ä¸": 260,
      "ãĢ": 261,
      "ï¼Į": 262,
      "äº": 263,
      "çļ": 264,
      "çļĦ": 265,
      "ãĢĤ": 266,
      "åħ": 267,
      "åı": 268,
      "æľ": 269,
      "å¹": 270,
      "ä»": 271,
      "å¤": 272,
      "åľ": 273,
      "åĪ": 274,
      "åĲ": 275,
      "åĽ": 276,
      "å®": 277,
      "å¹´": 278,
      "ä½": 279,
      "æĹ": 280,
      "çĶ": 281,
      "åį": 282,
      "æĸ": 283,
      "è¿": 284,
      "æĺ": 285,
      "å°": 286,
      "ä¹": 287,
      "ãĢģ": 288,
      "ç»": 289,
      "åľ¨": 290,
      "ä¸º": 291,
      "åĬ": 292,
      "ä¸Ģ": 293,
      "åĮ": 294,
      "åŃ": 295,
      "ä¼": 296,
      "æĪ": 297,
      "å¸": 298,
      "åĽ½": 299,
      "è¯": 300,
      "ä¸Ń": 301,
      "åĨ": 302,
      "è®": 303,
      "äºº": 304,
      "æĺ¯": 305,
      "åº": 306,
      "æĿ": 307,
      "ï¼Ī": 308,
      "ï¼ī": 309,
      "å·": 310,
      "å¼": 311,
      "å¾": 312,
      "éĩ": 313,
      "äºİ": 314,
      "è¡": 315,
      "çī": 316,
      "ç§": 317,
      "çº": 318,
      "å±": 319,
      "å¤§": 320,
      "æĶ": 321,
      "æī": 322,
      "æľī": 323,
      "åĩ": 324,
      "éĢ": 325,
      "åĴ": 326,
      "åĴĮ": 327,
      "20": 328,
      "æŃ": 329,
      "éĥ": 330,
      "èĢ": 331,
      "åİ": 332,
      "èµ": 333,
      "æ°": 334,
      "æķ": 335,
      "å½": 336,
      "æľĪ": 337,
      "éĻ": 338,
      "å¯": 339,
      "æĭ": 340,
      "æĹ¥": 341,
      "çĽ": 342,
      "èĩ": 343,
      "å¥": 344,
      "æ³": 345,
      "ä»¥": 346,
      "éĺ": 347,
      "çİ": 348,
      "æł": 349,
      "19": 350,
      "âĢ": 351,
      "åĲİ": 352,
      "åĳ": 353,
      "æĹ¶": 354,
      "æ²": 355,
      "äºĨ": 356,
      "æµ": 357,
      "åľ°": 358,
      "ç«": 359,
      "åŃ¦": 360,
      "è¾": 361,
      "ä¼ļ": 362,
      "è§": 363,
      "æĢ": 364,
      "è´": 365,
      "ä¸ª": 366,
      "éĹ": 367,
      "è½": 368,
      "æĪĲ": 369,
      "éķ": 370,
      "åŁ": 371,
      "éĿ": 372,
      "æĸ¯": 373,
      "è¡Į": 374,
      "ä¸Ĭ": 375,
      "åĮº": 376,
      "åī": 377,
      "çĲ": 378,
      "éĥ¨": 379,
      "åĩº": 380,
      "ä»ĸ": 381,
      "æ¯": 382,
      "æŀ": 383,
      "åħ¬": 384,
      "æ´": 385,
      "ä¸į": 386,
      "ä¸İ": 387,
      "æĬ": 388,
      "æİ": 389,
      "å°Ķ": 390,
      "ç¬": 391,
      "çĶŁ": 392,
      "æ¸": 393,
      "ç½": 394,
      "æĽ": 395,
      "åıĳ": 396,
      "åĲį": 397,
      "åħ¶": 398,
      "ä½ľ": 399,
      "ä¸»": 400,
      "ä¿": 401,
      "éģ": 402,
      "ä¹ĭ": 403,
      "çŃ": 404,
      "åĪĨ": 405,
      "èĥ": 406,
      "è¢": 407,
      "ç¬¬": 408,
      "æĸ¹": 409,
      "è¥": 410,
      "å®¶": 411,
      "è¥¿": 412,
      "å§": 413,
      "çĶ¨": 414,
      "ãĢĬ": 415,
      "ãĢĭ": 416,
      "Â·": 417,
      "ä¸ĭ": 418,
      "åĪ°": 419,
      "æ³ķ": 420,
      "å¿": 421,
      "ç¾": 422,
      "æĶ¿": 423,
      "å¹¶": 424,
      "æ¬": 425,
      "å»": 426,
      "èĢĮ": 427,
      "åĨĽ": 428,
      "ä½į": 429,
      "çľ": 430,
      "å¸Ĥ": 431,
      "é¢": 432,
      "åıĬ": 433,
      "ä¾": 434,
      "æĮ": 435,
      "æ±": 436,
      "è¢«": 437,
      "è·": 438,
      "æ°ĳ": 439,
      "çĶ±": 440,
      "éĽ": 441,
      "æľ¬": 442,
      "ç±": 443,
      "é¦": 444,
      "èĭ": 445,
      "åĵ": 446,
      "éĩĮ": 447,
      "éķ¿": 448,
      "çī¹": 449,
      "åĲĮ": 450,
      "åĬ¨": 451,
      "å¯¹": 452,
      "åįĹ": 453,
      "æĿ¥": 454,
      "é©": 455,
      "èģ": 456,
      "åħĭ": 457,
      "è¿Ļ": 458,
      "å¤ļ": 459,
      "ä»»": 460,
      "åı¯": 461,
      "å¼Ģ": 462,
      "åŃĲ": 463,
      "åĳĺ": 464,
      "èĩª": 465,
      "å¾·": 466,
      "åĬł": 467,
      "æĸ°": 468,
      "å¹³": 469,
      "åĿ": 470,
      "åĮĹ": 471,
      "èİ": 472,
      "ä¸ľ": 473,
      "èī": 474,
      "æĸĩ": 475,
      "å£": 476,
      "åĪ©": 477,
      "é«": 478,
      "æľĢ": 479,
      "æµ·": 480,
      "ãĢĮ": 481,
      "ãĢį": 482,
      "æĻ": 483,
      "é«ĺ": 484,
      "ï¼ļ": 485,
      "äºļ": 486,
      "åīį": 487,
      "ä»£": 488,
      "ç¾İ": 489,
      "åı°": 490,
      "æīĢ": 491,
      "¦ģ": 492,
      "201": 493,
      "å»º": 494,
      "å¾Ĺ": 495,
      "çī©": 496,
      "ç¤": 497,
      "éĿ¢": 498,
      "åĨħ": 499,
      "èĩ³": 500,
      "ä¸ī": 501,
      "çĶµ": 502,
      "è½¦": 503,
      "äºĭ": 504,
      "âĢľ": 505,
      "âĢĿ": 506,
      "åĽł": 507,
      "è¿Ľ": 508,
      "æŃ¤": 509,
      "èĪ": 510,
      "ä¹Ł": 511,
      "éĹ´": 512,
      "éģĵ": 513,
      "çİ°": 514,
      "ç»ı": 515,
      "è¿ĩ": 516,
      "çŃī": 517,
      "èµĽ": 518,
      "åº¦": 519,
      "ï¼īï¼Į": 520,
      "æĭī": 521,
      "è¦ģ": 522,
      "åħ¥": 523,
      "å²": 524,
      "å½ĵ": 525,
      "è¡¨": 526,
      "çŁ": 527,
      "æľº": 528,
      "è¯¥": 529,
      "ç¥": 530,
      "ç«ĭ": 531,
      "çĲĨ": 532,
      "è·¯": 533,
      "ç©": 534,
      "çķ": 535,
      "å°Ĩ": 536,
      "é¡": 537,
      "ä½ĵ": 538,
      "æĪĺ": 539,
      "è°": 540,
      "å¦": 541,
      "èĲ": 542,
      "çľģ": 543,
      "å·ŀ": 544,
      "éļ": 545,
      "ä¸Ģä¸ª": 546,
      "æľŁ": 547,
      "å·¥": 548,
      "äºĮ": 549,
      "é©¬": 550,
      "ç®": 551,
      "åı£": 552,
      "åĲĪ": 553,
      "ä¸ĸ": 554,
      "æķĻ": 555,
      "å±±": 556,
      "èĥ½": 557,
      "å¤ĸ": 558,
      "å¸ĥ": 559,
      "åĪ¶": 560,
      "200": 561,
      "æı": 562,
      "å®ļ": 563,
      "å°ı": 564,
      "æį": 565,
      "éĵ": 566,
      "æĦ": 567,
      "èĬ": 568,
      "æ¬¡": 569,
      "åħ±": 570,
      "éĢļ": 571,
      "ä¸ļ": 572,
      "ç§ĳ": 573,
      "è®¾": 574,
      "è¶": 575,
      "ç§į": 576,
      "åľº": 577,
      "éĺŁ": 578,
      "æĥ": 579,
      "åħ¨": 580,
      "åĮĸ": 581,
      "ç³": 582,
      "ä½Ĩ": 583,
      "ä½¿": 584,
      "çĲĥ": 585,
      "èĢħ": 586,
      "é£": 587,
      "åįģ": 588,
      "ç«Ļ": 589,
      "æĢ§": 590,
      "çº¿": 591,
      "å¤©": 592,
      "æķ°": 593,
      "èĤ": 594,
      "ç½Ĺ": 595,
      "æŁ": 596,
      "çĻ": 597,
      "ç§°": 598,
      "çł": 599,
      "éŁ": 600,
      "å®ī": 601,
      "å¼ı": 602,
      "æģ": 603,
      "éĤ": 604,
      "åİ¿": 605,
      "éĩį": 606,
      "ç¼": 607,
      "è¿Ĳ": 608,
      "ç³»": 609,
      "æ¯Ķ": 610,
      "æ¡": 611,
      "èģĶ": 612,
      "ç±³": 613,
      "æĢ»": 614,
      "10": 615,
      "æ¼": 616,
      "å±ŀ": 617,
      "æ¹": 618,
      "ä¸¤": 619,
      "çĪ": 620,
      "ç¨": 621,
      "çĤ": 622,
      "ç¦": 623,
      "å¢": 624,
      "ä¸ŃåĽ½": 625,
      "éĢī": 626,
      "éĻ¢": 627,
      "åŁº": 628,
      "åĬĽ": 629,
      "åŁİ": 630,
      "å£«": 631,
      "éĥ½": 632,
      "æ²»": 633,
      "ï¼Ľ": 634,
      "åħ°": 635,
      "çĽ¸": 636,
      "åİŁ": 637,
      "åħ³": 638,
      "è¾¾": 639,
      "æł¼": 640,
      "å°¼": 641,
      "å¡": 642,
      "éķĩ": 643,
      "åģ": 644,
      "åı·": 645,
      "æ°´": 646,
      "é»": 647,
      "æĺİ": 648,
      "ç»Ħ": 649,
      "ç»Ł": 650,
      "èµ·": 651,
      "åı¸": 652,
      "å½±": 653,
      "çº¦": 654,
      "èĭ±": 655,
      "æŃ£": 656,
      "åºľ": 657,
      "çĽ®": 658,
      "éĩĳ": 659,
      "åįİ": 660,
      "çİĭ": 661,
      "éĺ¿": 662,
      "åĪĹ": 663,
      "æİ¥": 664,
      "è®¡": 665,
      "æĪĸ": 666,
      "ä»¬": 667,
      "å·´": 668,
      "è®®": 669,
      "é¦ĸ": 670,
      "00": 671,
      "åĽĽ": 672,
      "æıĲ": 673,
      "çģ": 674,
      "çĦ": 675,
      "åħĥ": 676,
      "èĳ": 677,
      "ä»İ": 678,
      "æ¼Ķ": 679,
      "èį": 680,
      "äº§": 681,
      "åŀ": 682,
      "å¥³": 683,
      "ç¾İåĽ½": 684,
      "æŀĹ": 685,
      "å¦Ĥ": 686,
      "éħ": 687,
      "éĩı": 688,
      "æ¶": 689,
      "åĢ": 690,
      "åıĤ": 691,
      "æĶ¹": 692,
      "æ®": 693,
      "æ¸¯": 694,
      "å¸¸": 695,
      "åı²": 696,
      "è¯Ń": 697,
      "åĬ¡": 698,
      "åĮħ": 699,
      "éĶ": 700,
      "åĲĳ": 701,
      "18": 702,
      "äººåı£": 703,
      "äº¤": 704,
      "åĶ": 705,
      "å¿ĥ": 706,
      "çº§": 707,
      "ä¹Ĳ": 708,
      "æĹł": 709,
      "éľ": 710,
      "æĽ¾": 711,
      "è£": 712,
      "12": 713,
      "ä½įäºİ": 714,
      "çĦ¶": 715,
      "ç»´": 716,
      "å®ŀ": 717,
      "èİ·": 718,
      "å¨": 719,
      "æĮĩ": 720,
      "æĦı": 721,
      "åıĹ": 722,
      "ä¿Ŀ": 723,
      "æĴ": 724,
      "å§Ķ": 725,
      "åĽ¢": 726,
      "åİĨ": 727,
      "æ²³": 728,
      "ä¹ī": 729,
      "ç»ĵ": 730,
      "æ£": 731,
      "çķĮ": 732,
      "å§ĭ": 733,
      "ç´": 734,
      "æĺŁ": 735,
      "ä¹¦": 736,
      "ç¨ĭ": 737,
      "åį¡": 738,
      "èī²": 739,
      "æīĭ": 740,
      "è§Ĩ": 741,
      "åįķ": 742,
      "å¤Ħ": 743,
      "ç®¡": 744,
      "åĭ": 745,
      "å°±": 746,
      "åĪĻ": 747,
      "çĥ": 748,
      "å¹¿": 749,
      "æ·": 750,
      "åħļ": 751,
      "éĹ¨": 752,
      "ç±»": 753,
      "å½¢": 754,
      "å¥¥": 755,
      "éŁ³": 756,
      "é²": 757,
      "å¯¼": 758,
      "éĴ": 759,
      "åŀĭ": 760,
      "æµģ": 761,
      "è¯´": 762,
      "è®¤": 763,
      "çĽ´": 764,
      "ç¤¾": 765,
      "å·²": 766,
      "ï¼īãĢĤ": 767,
      "er": 768,
      "éĽĨ": 769,
      "åºĶ": 770,
      "åł": 771,
      "å¤«": 772,
      "æį®": 773,
      "ä¼ł": 774,
      "äºĽ": 775,
      "11": 776,
      "æº": 777,
      "åĵģ": 778,
      "çĤ¹": 779,
      "an": 780,
      "é¢Ĩ": 781,
      "ä¸ĩ": 782,
      "èº": 783,
      "èĮ": 784,
      "æ¢": 785,
      "æł¡": 786,
      "åĽŀ": 787,
      "æ¹¾": 788,
      "çĭ": 789,
      "å±ķ": 790,
      "æĮģ": 791,
      "æĽ´": 792,
      "éĵģ": 793,
      "ç¤º": 794,
      "199": 795,
      "é¦Ļ": 796,
      "ä¸¾": 797,
      "é¾": 798,
      "ç§¯": 799,
      "äºĶ": 800,
      "ç©º": 801,
      "æĶ¿åºľ": 802,
      "èĴ": 803,
      "æ»": 804,
      "æĥħ": 805,
      "æĻ®": 806,
      "èº«": 807,
      "æĬ¥": 808,
      "å¤§åŃ¦": 809,
      "å¸Ī": 810,
      "åıį": 811,
      "è¿ĺ": 812,
      "çº³": 813,
      "éª": 814,
      "å®ĺ": 815,
      "èµĦ": 816,
      "å¤ª": 817,
      "çºª": 818,
      "èĻ": 819,
      "åľ°åĮº": 820,
      "åı¤": 821,
      "çı": 822,
      "æ´»": 823,
      "åĪ«": 824,
      "åħ¬åı¸": 825,
      "åĲĦ": 826,
      "å²Ľ": 827,
      "æ¸¸": 828,
      "ç¡": 829,
      "çĸ": 830,
      "in": 831,
      "å±Ģ": 832,
      "åı¯ä»¥": 833,
      "ï¼Īï¼ī": 834,
      "or": 835,
      "æĶ¯": 836,
      "ä½¿çĶ¨": 837,
      "éĢł": 838,
      "æ±Ł": 839,
      "åĩ»": 840,
      "åŃĹ": 841,
      "åķ": 842,
      "åıĸ": 843,
      "åıĺ": 844,
      "åī§": 845,
      "åĳ½": 846,
      "ä¸ĵ": 847,
      "202": 848,
      "å¼ł": 849,
      "æĹ¥æľ¬": 850,
      "æĭ¬": 851,
      "å¸¦": 852,
      "æłĩ": 853,
      "åĽ½å®¶": 854,
      "çĬ": 855,
      "çĵ": 856,
      "çĹ": 857,
      "æĹı": 858,
      "on": 859,
      "æĪĲä¸º": 860,
      "æ´²": 861,
      "ä¼Ĭ": 862,
      "æĽ²": 863,
      "çĿ": 864,
      "åĮħæĭ¬": 865,
      "å¼Ģå§ĭ": 866,
      "åĪĴ": 867,
      "æľ¯": 868,
      "æľĿ": 869,
      "èĭı": 870,
      "é£İ": 871,
      "å¥¹": 872,
      "éĿŀ": 873,
      "è¿ĳ": 874,
      "èĬĤ": 875,
      "ä»¶": 876,
      "è§£": 877,
      "å°ĳ": 878,
      "èĳĹ": 879,
      "çłĶ": 880,
      "ç²": 881,
      "åĽ¾": 882,
      "èĦ": 883,
      "äº¬": 884,
      "15": 885,
      "åĨ³": 886,
      "ç¼ĸ": 887,
      "è®º": 888,
      "ä¿¡": 889,
      "åıª": 890,
      "è®°": 891,
      "éĻħ": 892,
      "æ²¡": 893,
      "åħ¬éĩĮ": 894,
      "åį³": 895,
      "å®ĥ": 896,
      "çīĩ": 897,
      "ç¿": 898,
      "çŁ³": 899,
      "æĶ¾": 900,
      "æł¹": 901,
      "æ°Ķ": 902,
      "è¿Ľè¡Į": 903,
      "èģĮ": 904,
      "å¹³æĸ¹": 905,
      "æĿĥ": 906,
      "ç¬¬ä¸Ģ": 907,
      "ä»¥åıĬ": 908,
      "ç¥ŀ": 909,
      "é¾Ļ": 910,
      "æ³¢": 911,
      "è½¬": 912,
      "é¦Ļæ¸¯": 913,
      "çļĦä¸Ģ": 914,
      "ä¾ĭ": 915,
      "æľª": 916,
      "æĿ¡": 917,
      "æ¯ı": 918,
      "è§Ĵ": 919,
      "æĶ¶": 920,
      "åħī": 921,
      "åħ¶ä¸Ń": 922,
      "æĿĳ": 923,
      "åķĨ": 924,
      "åĻ": 925,
      "è¿ŀ": 926,
      "æ¸ħ": 927,
      "æĳ": 928,
      "éĻĨ": 929,
      "åĸ": 930,
      "çīĪ": 931,
      "åĳ¨": 932,
      "çļĦä¸Ģä¸ª": 933,
      "äººæ°ĳ": 934,
      "æ¨": 935,
      "ç¦»": 936,
      "æŃĮ": 937,
      "è°ĥ": 938,
      "è±": 939,
      "åŃ£": 940,
      "å¯Ĩ": 941,
      "å¤´": 942,
      "åĪĽ": 943,
      "çŁ¥": 944,
      "åĪĿ": 945,
      "åı°æ¹¾": 946,
      "åıĪ": 947,
      "æŃ¦": 948,
      "éĥ¨åĪĨ": 949,
      "ä»¤": 950,
      "å¾Ģ": 951,
      "ç©¶": 952,
      "198": 953,
      "åĬŀ": 954,
      "åº§": 955,
      "åħĪ": 956,
      "åİ»": 957,
      "éĿ¢ç§¯": 958,
      "16": 959,
      "ä¸ĸçķĮ": 960,
      "å¡Ķ": 961,
      "æŁ¥": 962,
      "çĻ½": 963,
      "æŀĦ": 964,
      "èİ·å¾Ĺ": 965,
      "æŀľ": 966,
      "æīĵ": 967,
      "ç¦ı": 968,
      "åĨį": 969,
      "å¤į": 970,
      "å¼º": 971,
      "ä¸»è¦ģ": 972,
      "åŁŁ": 973,
      "çłĶç©¶": 974,
      "åĻ¨": 975,
      "çĵ¦": 976,
      "åħµ": 977,
      "åħŃ": 978,
      "ä»ĸä»¬": 979,
      "äºī": 980,
      "æĿİ": 981,
      "æ´¾": 982,
      "éļı": 983,
      "17": 984,
      "ç»Ń": 985,
      "åľ£": 986,
      "å¨ģ": 987,
      "æ®µ": 988,
      "ar": 989,
      "è§Ĥ": 990,
      "æĴŃ": 991,
      "æ²¡æľī": 992,
      "æļ": 993,
      "å®Į": 994,
      "å±ħ": 995,
      "çĳ": 996,
      "åİĨåı²": 997,
      "ä¹¡": 998,
      "è¶³": 999,
      "é¢ĺ": 1000,
      "ç½ĳ": 1001,
      "èĤ²": 1002,
      "å¼ķ": 1003,
      "è£ħ": 1004,
      "èı": 1005,
      "èĲ¨": 1006,
      "å®£": 1007,
      "é¡¹": 1008,
      "è®¤ä¸º": 1009,
      "Ġ(": 1010,
      "æ¬§": 1011,
      "å¥ĸ": 1012,
      "è¿ĲåĬ¨": 1013,
      "åįı": 1014,
      "éĻ¤": 1015,
      "èĲ¥": 1016,
      "åĭĴ": 1017,
      "è®¸": 1018,
      "éĽ·": 1019,
      "ä¸Ķ": 1020,
      "ä»½": 1021,
      "æľį": 1022,
      "åľŁ": 1023,
      "çĶ·": 1024,
      "æĭħ": 1025,
      "en": 1026,
      "åħ¶ä»ĸ": 1027,
      "æĺ¯ä¸Ģ": 1028,
      "ä»£è¡¨": 1029,
      "è§Ħ": 1030,
      "å§Ķåĳĺ": 1031,
      "æ´Ľ": 1032,
      "å¸Į": 1033,
      "åĵĪ": 1034,
      "è´¨": 1035,
      "äº¦": 1036,
      "ç»Ī": 1037,
      "äº²": 1038,
      "ç½®": 1039,
      "æ³ķåĽ½": 1040,
      "éĹ®": 1041,
      "æĬ¤": 1042,
      "ç»Ļ": 1043,
      "ä»Ĭ": 1044,
      "æ±ī": 1045,
      "ç¬¬äºĮ": 1046,
      "åĽŃ": 1047,
      "å½ķ": 1048,
      "è¡ĮæĶ¿": 1049,
      "æ¡Ī": 1050,
      "æİ¨": 1051,
      "æºĲ": 1052,
      "é¦Ĩ": 1053,
      "éĢŁ": 1054,
      "ä¿®": 1055,
      "14": 1056,
      "è¨": 1057,
      "la": 1058,
      "æ¥": 1059,
      "æĶ¿æ²»": 1060,
      "éĺ³": 1061,
      "è¨Ģ": 1062,
      "å¸Ŀ": 1063,
      "åŃĺ": 1064,
      "çĪ±": 1065,
      "ï¼Īï¼īï¼Į": 1066,
      "æĪı": 1067,
      "30": 1068,
      "å¢ĥ": 1069,
      "å¢ŀ": 1070,
      "ä¾Ľ": 1071,
      "èĹ": 1072,
      "è¯Ħ": 1073,
      "åĦ": 1074,
      "åħ«": 1075,
      "çĶ±äºİ": 1076,
      "æŃ»": 1077,
      "åį«": 1078,
      "åĬŁ": 1079,
      "çĶµå½±": 1080,
      "è¶ħ": 1081,
      "æĬķ": 1082,
      "èİ±": 1083,
      "åħ·": 1084,
      "å®Ĺ": 1085,
      "åĲī": 1086,
      "è¾ĥ": 1087,
      "åįļ": 1088,
      "è§ģ": 1089,
      "åįĥ": 1090,
      "çĶ»": 1091,
      "è¾¹": 1092,
      "æ±Ĥ": 1093,
      "ä¼¦": 1094,
      "çİĩ": 1095,
      "èĬ±": 1096,
      "å®¢": 1097,
      "è¯º": 1098,
      "ä¼¯": 1099,
      "èĩ´": 1100,
      "åĩĨ": 1101,
      "åĿĩ": 1102,
      "åı¦": 1103,
      "é»Ħ": 1104,
      "è¾ĸ": 1105,
      "åĬ©": 1106,
      "åįĩ": 1107,
      "å·¥ä½ľ": 1108,
      "çĮ": 1109,
      "å¥½": 1110,
      "æĪĳ": 1111,
      "çĹħ": 1112,
      "åį°": 1113,
      "æµİ": 1114,
      "åī¯": 1115,
      "194": 1116,
      "å¤ĩ": 1117,
      "åĳĬ": 1118,
      "é¥": 1119,
      "åĽ½éĻħ": 1120,
      "æķħ": 1121,
      "å¾Ī": 1122,
      "åĥ": 1123,
      "çıŃ": 1124,
      "çª": 1125,
      "å¡ŀ": 1126,
      "è¯ķ": 1127,
      "æł·": 1128,
      "åĽłæŃ¤": 1129,
      "13": 1130,
      "çİ¯": 1131,
      "èĪª": 1132,
      "æĹ©": 1133,
      "ä¼Ĺ": 1134,
      "é²ģ": 1135,
      "åĮ»": 1136,
      "æİĴ": 1137,
      "ä¸Ńå¿ĥ": 1138,
      "åĲĮæĹ¶": 1139,
      "çģ«": 1140,
      "ä¸Ńåįİ": 1141,
      "æ²Ļ": 1142,
      "çĶ°": 1143,
      "éĿĴ": 1144,
      "æĸ½": 1145,
      "èīº": 1146,
      "ä¹Ŀ": 1147,
      "å¸Ĥéķĩ": 1148,
      "å·±": 1149,
      "è¡Ĺ": 1150,
      "æ¯į": 1151,
      "ä½ľä¸º": 1152,
      "åĦ¿": 1153,
      "197": 1154,
      "æ¹ĸ": 1155,
      "åĽ´": 1156,
      "çĪ¶": 1157,
      "å®¹": 1158,
      "æķ´": 1159,
      "æ¨¡": 1160,
      "èħ": 1161,
      "æīĺ": 1162,
      "æĶ»": 1163,
      "åĽłä¸º": 1164,
      "åĵį": 1165,
      "éº": 1166,
      "åı¯èĥ½": 1167,
      "åħ´": 1168,
      "ä¹ĭåĲİ": 1169,
      "éĻĪ": 1170,
      "ç¾¤": 1171,
      "è½¦ç«Ļ": 1172,
      "çĶµè§Ĩ": 1173,
      "æĬĢ": 1174,
      "ç³»ç»Ł": 1175,
      "çĻ»": 1176,
      "è´£": 1177,
      "å¿Ĺ": 1178,
      "éĺ²": 1179,
      "éĤ£": 1180,
      "çŃĳ": 1181,
      "æĭħä»»": 1182,
      "çĥŃ": 1183,
      "è¯ģ": 1184,
      "å¸Ń": 1185,
      "ä¹Į": 1186,
      "ä¿Ħ": 1187,
      "al": 1188,
      "ä¸ĥ": 1189,
      "æģ©": 1190,
      "å¤±": 1191,
      "å¤ı": 1192,
      "å®¤": 1193,
      "å±Ĥ": 1194,
      "ç¢": 1195,
      "èĲ½": 1196,
      "ç»§": 1197,
      "èĭ±åĽ½": 1198,
      "è¡¨ç¤º": 1199,
      "è´Ł": 1200,
      "æĦŁ": 1201,
      "éĩĩ": 1202,
      "æ¦": 1203,
      "è¶Ĭ": 1204,
      "å½ĵæĹ¶": 1205,
      "195": 1206,
      "æĺĵ": 1207,
      "å£°": 1208,
      "çĭ¬": 1209,
      "èŃ": 1210,
      "çĽŁ": 1211,
      "ç»ĩ": 1212,
      "èĩªå·±": 1213,
      "åįĬ": 1214,
      "é¸": 1215,
      "çĻ¾": 1216,
      "ä¸ŃçļĦ": 1217,
      "æĹ¶éĹ´": 1218,
      "é£ŀ": 1219,
      "çħ": 1220,
      "åıĮ": 1221,
      "æ£®": 1222,
      "èŃ¦": 1223,
      "ä»ĸçļĦ": 1224,
      "éľĢ": 1225,
      "å§Ĩ": 1226,
      "é±": 1227,
      "çĬ¶": 1228,
      "çº¢": 1229,
      "çļĩ": 1230,
      "åĨł": 1231,
      "ï¼Īï¼Į": 1232,
      "åŁĥ": 1233,
      "åįł": 1234,
      "éĢļè¿ĩ": 1235,
      "éħį": 1236,
      "åłĤ": 1237,
      "é±¼": 1238,
      "åĨĻ": 1239,
      "at": 1240,
      "196": 1241,
      "èĢĥ": 1242,
      "è´¹": 1243,
      "å¥ĩ": 1244,
      "æŃ¥": 1245,
      "æ·±": 1246,
      "25": 1247,
      "åıĳå±ķ": 1248,
      "æĪĲç«ĭ": 1249,
      "æ½": 1250,
      "é»ĳ": 1251,
      "åħ±åĴĮ": 1252,
      "éĻĲ": 1253,
      "ä½ķ": 1254,
      "ä½ı": 1255,
      "æŀģ": 1256,
      "æł¹æį®": 1257,
      "è´Ŀ": 1258,
      "å·Ŀ": 1259,
      "å¯Ł": 1260,
      "ç¡®": 1261,
      "å¤®": 1262,
      "å¹³æĸ¹åħ¬éĩĮ": 1263,
      "es": 1264,
      "æ¾": 1265,
      "é£Ł": 1266,
      "å±Ĭ": 1267,
      "è®©": 1268,
      "ic": 1269,
      "åŃ¦éĻ¢": 1270,
      "è±¡": 1271,
      "):": 1272,
      "æĽ¼": 1273,
      "ï¼īãĢģ": 1274,
      "æĤ": 1275,
      "å²ģ": 1276,
      "åıĳçİ°": 1277,
      "ä¹ĭä¸Ģ": 1278,
      "å°Ħ": 1279,
      "è®¾è®¡": 1280,
      "çĶ²": 1281,
      "æĻ¯": 1282,
      "èĪ°": 1283,
      "é¡¿": 1284,
      "æľŁéĹ´": 1285,
      "ä»į": 1286,
      "ãĢįï¼Į": 1287,
      "æĿĢ": 1288,
      "å»ºçŃĳ": 1289,
      "âĢĿãĢĤ": 1290,
      "ç¤¾ä¼ļ": 1291,
      "æĸĻ": 1292,
      "æŃ¢": 1293,
      "èĢģ": 1294,
      "åĥı": 1295,
      "å±ŀäºİ": 1296,
      "æī¹": 1297,
      "æľ¨": 1298,
      "æ³°": 1299,
      "èĮĥ": 1300,
      "æ´ĭ": 1301,
      "åĵ¥": 1302,
      "çľŁ": 1303,
      "åıĤåĬł": 1304,
      "æ¥¼": 1305,
      "è¿ª": 1306,
      "æİ§": 1307,
      "æ°ı": 1308,
      "çķĻ": 1309,
      "æ¸¸æĪı": 1310,
      "ç¥¨": 1311,
      "ä¸Ńå¤®": 1312,
      "éĿ©": 1313,
      "éŁ³ä¹Ĳ": 1314,
      "å¾ĭ": 1315,
      "æĥ³": 1316,
      "æ¯ĶèµĽ": 1317,
      "ä¸įåĲĮ": 1318,
      "åĺ": 1319,
      "éĵģè·¯": 1320,
      "ä½İ": 1321,
      "æµĭ": 1322,
      "âĢĶ": 1323,
      "ç´¢": 1324,
      "ç»Ħç»ĩ": 1325,
      "å§Ķåĳĺä¼ļ": 1326,
      "å½±åĵį": 1327,
      "è¾ĳ": 1328,
      "è¿ĻäºĽ": 1329,
      "æ¡¥": 1330,
      "ä¾¿": 1331,
      "ä¸»ä¹ī": 1332,
      "æīį": 1333,
      "ç§°ä¸º": 1334,
      "åĨľ": 1335,
      "æķĪ": 1336,
      "æ¤": 1337,
      "çīĻ": 1338,
      "çīĮ": 1339,
      "ä»ħ": 1340,
      "åĩł": 1341,
      "æĸĩåĮĸ": 1342,
      "æħ": 1343,
      "éĻį": 1344,
      "èĴĻ": 1345,
      "ç§»": 1346,
      "èĥľ": 1347,
      "åħ±åĴĮåĽ½": 1348,
      "éŃ": 1349,
      "åºĵ": 1350,
      "ĠS": 1351,
      "æ¶Ī": 1352,
      "æĪ¿": 1353,
      "å¿µ": 1354,
      "åģľ": 1355,
      "ä¸ĸçºª": 1356,
      "è¿°": 1357,
      "æİĪ": 1358,
      "éĵ¶": 1359,
      "åĶ±": 1360,
      "åºķ": 1361,
      "è¯į": 1362,
      "24": 1363,
      "å³": 1364,
      "åº·": 1365,
      "è®¡åĪĴ": 1366,
      "ç»ıæµİ": 1367,
      "æĢģ": 1368,
      "å¹´çļĦ": 1369,
      "çĿĢ": 1370,
      "ç®Ģ": 1371,
      "ãĢįãĢĤ": 1372,
      "ç´ł": 1373,
      "æī¿": 1374,
      "çłģ": 1375,
      "é¢Ħ": 1376,
      "å®ģ": 1377,
      "is": 1378,
      "å©": 1379,
      "æĺ¾": 1380,
      "åŃ¦æł¡": 1381,
      "æīĢæľī": 1382,
      "è´¥": 1383,
      "for": 1384,
      "çľĭ": 1385,
      "ä½ľåĵģ": 1386,
      "å¹´ä»£": 1387,
      "æ¸©": 1388,
      "åħ¸": 1389,
      "ä»·": 1390,
      "åĩºçİ°": 1391,
      "å¾ģ": 1392,
      "åĪĺ": 1393,
      "æıĲä¾Ľ": 1394,
      "ç®¡çĲĨ": 1395,
      "21": 1396,
      "å¹²": 1397,
      "æģ¯": 1398,
      "éĻĦ": 1399,
      "åŁİå¸Ĥ": 1400,
      "ä½Ľ": 1401,
      "æĪ·": 1402,
      "æ´»åĬ¨": 1403,
      "æŃ£å¼ı": 1404,
      "äºĳ": 1405,
      "ç½Ĺæĸ¯": 1406,
      "éŁ©": 1407,
      "è¯Ŀ": 1408,
      "å¼¹": 1409,
      "è½½": 1410,
      "åĨµ": 1411,
      "åıĳçĶŁ": 1412,
      "th": 1413,
      "å¾·åĽ½": 1414,
      "æī§": 1415,
      "å´": 1416,
      "çĳŀ": 1417,
      "ä¹ĭéĹ´": 1418,
      "åĪ©äºļ": 1419,
      "193": 1420,
      "æĹ¶æľŁ": 1421,
      "åıĭ": 1422,
      "æĬĬ": 1423,
      "ç®Ĺ": 1424,
      "âĢĿï¼Į": 1425,
      "è¿Ļä¸ª": 1426,
      "åĿ¦": 1427,
      "è¯·": 1428,
      "æ»¡": 1429,
      "æ³¨": 1430,
      "æ¾³": 1431,
      "åĲİæĿ¥": 1432,
      "ä¹ł": 1433,
      "ç¥ĸ": 1434,
      "éĢĢ": 1435,
      "æĹ§": 1436,
      "èĪ¹": 1437,
      "23": 1438,
      "mu": 1439,
      "ä½Ļ": 1440,
      "æĬĹ": 1441,
      "æĢĿ": 1442,
      "å®Ī": 1443,
      "åºĦ": 1444,
      "è¿ľ": 1445,
      "åł¡": 1446,
      "åĢĻ": 1447,
      "æľĹ": 1448,
      "æĲ": 1449,
      "é¹": 1450,
      "le": 1451,
      "æľĢåĲİ": 1452,
      "ä¸ĬçļĦ": 1453,
      "æľĽ": 1454,
      "28": 1455,
      "æľĢç»Ī": 1456,
      "å¼Ĺ": 1457,
      "ä¸´": 1458,
      "å¿«": 1459,
      "èĴĤ": 1460,
      "çħ§": 1461,
      "ç«ł": 1462,
      "ä¾§": 1463,
      "çĽĳ": 1464,
      "éĤ¦": 1465,
      "è´Łè´£": 1466,
      "ãĢĭï¼Į": 1467,
      "ä¸ģ": 1468,
      "éĹ®é¢ĺ": 1469,
      "æķĻèĤ²": 1470,
      "èİ«": 1471,
      "åģļ": 1472,
      "æ¢ħ": 1473,
      "ä¾Ŀ": 1474,
      "æĪĲåĳĺ": 1475,
      "ĠC": 1476,
      "å®«": 1477,
      "æĹħ": 1478,
      "æĭ¿": 1479,
      "è¿Ľåħ¥": 1480,
      "22": 1481,
      "å°¼äºļ": 1482,
      "ç²¾": 1483,
      "è®¸å¤ļ": 1484,
      "çĿ£": 1485,
      "èĹı": 1486,
      "ä¸¹": 1487,
      "åħ¨åĽ½": 1488,
      "ç¬¬ä¸ī": 1489,
      "åįķä½į": 1490,
      "å½ĵåľ°": 1491,
      "å·¦": 1492,
      "å¯Į": 1493,
      "åİĭ": 1494,
      "åı¶": 1495,
      "ä¹Łæĺ¯": 1496,
      "èĽ": 1497,
      "çªģ": 1498,
      "çł´": 1499,
      "it": 1500,
      "é½": 1501,
      "æľįåĬ¡": 1502,
      "ä¸½": 1503,
      "éªĮ": 1504,
      "26": 1505,
      "ä»¥ä¸ĭ": 1506,
      "åİħ": 1507,
      "åĲįä¸º": 1508,
      "åį¢": 1509,
      "åĬ¿": 1510,
      "åĲ«": 1511,
      "å°ģ": 1512,
      "äººçļĦ": 1513,
      "çĶŁæ´»": 1514,
      "åĪ¶ä½ľ": 1515,
      "ä¸ĢäºĽ": 1516,
      "æ°¸": 1517,
      "æĸĹ": 1518,
      "åİĤ": 1519,
      "27": 1520,
      "åĢ¼": 1521,
      "å·²ç»ı": 1522,
      "çļ®": 1523,
      "å¤§çļĦ": 1524,
      "åĮĹäº¬": 1525,
      "æĵ": 1526,
      "50": 1527,
      "æĪĺäºī": 1528,
      "æĭĶ": 1529,
      "mula": 1530,
      "éĹ»": 1531,
      "el": 1532,
      "formula": 1533,
      "ä¼¼": 1534,
      "éļ¾": 1535,
      "æĶ¯æĮģ": 1536,
      "å»¶": 1537,
      "ro": 1538,
      "åıĳè¡Į": 1539,
      "å®£å¸ĥ": 1540,
      "å·¥ç¨ĭ": 1541,
      "è¯Ĩ": 1542,
      "äº¡": 1543,
      "åħ³ç³»": 1544,
      "åºĹ": 1545,
      "2020": 1546,
      "æĸŃ": 1547,
      "ç»Ĩ": 1548,
      "åºĨ": 1549,
      "æŀ¶": 1550,
      "èģĶåĲĪ": 1551,
      "èĻ½": 1552,
      "ä¸Ĭæµ·": 1553,
      "åĪ¤": 1554,
      "æł¸": 1555,
      "è¶³çĲĥ": 1556,
      "åĪĩ": 1557,
      "2010": 1558,
      "éļĨ": 1559,
      "å½Ĵ": 1560,
      "ĠM": 1561,
      "åı³": 1562,
      "éº¦": 1563,
      "åĺī": 1564,
      "äººçī©": 1565,
      "åıĤä¸İ": 1566,
      "æ¯Ľ": 1567,
      "èĬĤçĽ®": 1568,
      "çĨ": 1569,
      "è½®": 1570,
      "è¯»": 1571,
      "ç¤¼": 1572,
      "ä¸¾è¡Į": 1573,
      "äºĭä»¶": 1574,
      "èįī": 1575,
      "åĨ³å®ļ": 1576,
      "å²¸": 1577,
      "2019": 1578,
      "ä¼¤": 1579,
      "re": 1580,
      "èµ«": 1581,
      "ä¸¤ä¸ª": 1582,
      "æĿ°": 1583,
      "åľ°æĸ¹": 1584,
      "å®Ŀ": 1585,
      "ä¸¥": 1586,
      "èµ°": 1587,
      "éĩİ": 1588,
      "éģĹ": 1589,
      "åĶĲ": 1590,
      "é©»": 1591,
      "000": 1592,
      "èĢ¶": 1593,
      "å¿ħ": 1594,
      "ç»Ŀ": 1595,
      "éĩįè¦ģ": 1596,
      "æĸ¹éĿ¢": 1597,
      "ä¿ĿæĬ¤": 1598,
      "åºŃ": 1599,
      "29": 1600,
      "çŃĸ": 1601,
      "ä¼ĺ": 1602,
      "am": 1603,
      "æĭ¥": 1604,
      "æ°ĳåĽ½": 1605,
      "å½¹": 1606,
      "ä¿Ħç½Ĺæĸ¯": 1607,
      "éĥ¡": 1608,
      "åį´": 1609,
      "ä»Ģ": 1610,
      "èī¾": 1611,
      "æĿ¾": 1612,
      "ç¯": 1613,
      "åĲĮå¹´": 1614,
      "åĶ®": 1615,
      "æ¤į": 1616,
      "æ¯ķ": 1617,
      "ĠĊ": 1618,
      "åĮĹéĥ¨": 1619,
      "äººæ°ĳåħ±åĴĮåĽ½": 1620,
      "èĵ": 1621,
      "ä½³": 1622,
      "å¼Ł": 1623,
      "é³": 1624,
      "éģŃ": 1625,
      "å°ļ": 1626,
      "å¼Ĥ": 1627,
      "ä¹ħ": 1628,
      "åĪ°äºĨ": 1629,
      "st": 1630,
      "åĬłåħ¥": 1631,
      "çĽ®åīį": 1632,
      "å¯º": 1633,
      "æį¢": 1634,
      "ãĢĭãĢģ": 1635,
      "èı²": 1636,
      "é¼": 1637,
      "ç»ĥ": 1638,
      "ä¼ļè®®": 1639,
      "ä¸ºäºĨ": 1640,
      "çŁŃ": 1641,
      "æĻļ": 1642,
      "ç½²": 1643,
      "æĬĢæľ¯": 1644,
      "æ³½": 1645,
      "åĪĹè½¦": 1646,
      "è¾ĵ": 1647,
      "èį¯": 1648,
      "æĺ¥": 1649,
      "éĽĦ": 1650,
      "åŃ¦å®¶": 1651,
      "åĪĨåĪ«": 1652,
      "æ¬§æ´²": 1653,
      "åª": 1654,
      "ion": 1655,
      "åŃ¦çĶŁ": 1656,
      "åĨłåĨĽ": 1657,
      "ãģ": 1658,
      "èĪ¬": 1659,
      "åħ¹": 1660,
      "ç³»åĪĹ": 1661,
      "èĥĮ": 1662,
      "æ²¹": 1663,
      "2018": 1664,
      "éĢģ": 1665,
      "2016": 1666,
      "å¸ķ": 1667,
      "æĢ»ç»Ł": 1668,
      "éĶĢ": 1669,
      "æĸ¯çī¹": 1670,
      "é¡º": 1671,
      "ç«¯": 1672,
      "ch": 1673,
      "éħĴ": 1674,
      "ä¸ĵè¾ĳ": 1675,
      "åĪĨå¸ĥ": 1676,
      "éĢĲ": 1677,
      "æĳ©": 1678,
      "åį°åº¦": 1679,
      "ä¹ĺ": 1680,
      "æ²ĥ": 1681,
      "çļĦäºº": 1682,
      "éľĢè¦ģ": 1683,
      "è½»": 1684,
      "ä¸Ńåįİäººæ°ĳåħ±åĴĮåĽ½": 1685,
      "ĠA": 1686,
      "å»ºç«ĭ": 1687,
      "æ²¿": 1688,
      "çİĽ": 1689,
      "æĿŁ": 1690,
      "æĹĹ": 1691,
      "æĺ¯åľ¨": 1692,
      "æŀª": 1693,
      "åĲ¯": 1694,
      "2011": 1695,
      "æĳĦ": 1696,
      "åįĥç±³": 1697,
      "æļ´": 1698,
      "æ£Ģ": 1699,
      "çĶŁå¹³": 1700,
      "è®¾æľī": 1701,
      "å®ĮæĪĲ": 1702,
      "åĨ²": 1703,
      "æĿ¨": 1704,
      "è¦ģæ±Ĥ": 1705,
      "åįĹéĥ¨": 1706,
      "æľĢé«ĺ": 1707,
      "æĿ¥èĩª": 1708,
      "çŃ¾": 1709,
      "ç»ĦæĪĲ": 1710,
      "åºı": 1711,
      "èŀ": 1712,
      "ol": 1713,
      "å°½": 1714,
      "çĭ¬ç«ĭ": 1715,
      "æľ«": 1716,
      "ä»ĭ": 1717,
      "ç±į": 1718,
      "çģµ": 1719,
      "è·Ŀ": 1720,
      "il": 1721,
      "2017": 1722,
      "éĺµ": 1723,
      "æĪĲåĬŁ": 1724,
      "æĥħåĨµ": 1725,
      "äº¤éĢļ": 1726,
      "èĩªçĶ±": 1727,
      "èį£": 1728,
      "æ¬¾": 1729,
      "æµ·æĭĶ": 1730,
      "éĺ¶": 1731,
      "åĲ´": 1732,
      "2021": 1733,
      "éĢīä¸¾": 1734,
      "éĽħ": 1735,
      "ä¾ĭå¦Ĥ": 1736,
      "èĻ½çĦ¶": 1737,
      "ou": 1738,
      "é¢ĳ": 1739,
      "åħ¼": 1740,
      "å¯Ĩåº¦": 1741,
      "2014": 1742,
      "æĭ¥æľī": 1743,
      "åŃĺåľ¨": 1744,
      "âĢĭ": 1745,
      "äºĨä¸Ģ": 1746,
      "å¹¶ä¸Ķ": 1747,
      "2012": 1748,
      "åĬ³": 1749,
      "å¼Ģåıĳ": 1750,
      "2015": 1751,
      "é¡»": 1752,
      "å¯¼èĩ´": 1753,
      "é¥°": 1754,
      "2013": 1755,
      "å¤§éĻĨ": 1756,
      "åªĴ": 1757,
      "æĿĤ": 1758,
      "äº¿": 1759,
      "40": 1760,
      "æ¿": 1761,
      "èĤ¡": 1762,
      "åŃĻ": 1763,
      "çĦ¶èĢĮ": 1764,
      "èīºæľ¯": 1765,
      "èĭ¥": 1766,
      "æłĳ": 1767,
      "çĽĸ": 1768,
      "ĠP": 1769,
      "å©ļ": 1770,
      "ç½ª": 1771,
      "æĭį": 1772,
      "åıĹåĪ°": 1773,
      "éĢļå¸¸": 1774,
      "ãĢĭãĢģãĢĬ": 1775,
      "çķ¥": 1776,
      "âĢĭâĢĭ": 1777,
      "åīįå¾Ģ": 1778,
      "åħį": 1779,
      "ç§Ģ": 1780,
      "åĤ": 1781,
      "ãĥ": 1782,
      "éĴŁ": 1783,
      "ä¸ĭè¾ĸ": 1784,
      "çĶ¨äºİ": 1785,
      "åĽ½æ°ĳ": 1786,
      "å°¾": 1787,
      "zh": 1788,
      "çĽ¸åħ³": 1789,
      "è´¢": 1790,
      "å¾®": 1791,
      "çº½": 1792,
      "å®³": 1793,
      "åĩı": 1794,
      "æĸ¹å¼ı": 1795,
      "äººåĳĺ": 1796,
      "ĠB": 1797,
      "éĽĨåĽ¢": 1798,
      "éĩĩçĶ¨": 1799,
      "æķ£": 1800,
      "éħ¸": 1801,
      "ä»ĸåľ¨": 1802,
      "èģĶçĽŁ": 1803,
      "åĲĪä½ľ": 1804,
      "2009": 1805,
      "åŃ¦åĲį": 1806,
      "èī¯": 1807,
      "è¡Ģ": 1808,
      "åħ±æľī": 1809,
      "è¿½": 1810,
      "é¡¶": 1811,
      "è¿ģ": 1812,
      "éĻ©": 1813,
      "æĿ¿": 1814,
      "è´Ń": 1815,
      "æĻĭ": 1816,
      "ä½Ĩæĺ¯": 1817,
      "äºĪ": 1818,
      "æľ±": 1819,
      "et": 1820,
      "2008": 1821,
      "äº§çĶŁ": 1822,
      "åĩºçīĪ": 1823,
      "2022": 1824,
      "ãĢĭãĢĤ": 1825,
      "åĸĦ": 1826,
      "å¹³æĸ¹åįĥç±³": 1827,
      "èĥ¡": 1828,
      "è°·": 1829,
      "å®¡": 1830,
      "çĶŁäº§": 1831,
      "è¯ĳ": 1832,
      "éĩĬ": 1833,
      "æıĲåĩº": 1834,
      "æ¯Ĵ": 1835,
      "çī¹åĪ«": 1836,
      "ç£": 1837,
      "æĿľ": 1838,
      "å·®": 1839,
      "è¯Ĺ": 1840,
      "éŁ¦": 1841,
      "è½¨": 1842,
      "éĢı": 1843,
      "åĩ¯": 1844,
      "çĲĥéĺŁ": 1845,
      "èģĶèµĽ": 1846,
      "ĠT": 1847,
      "äºĮåįģ": 1848,
      "å³°": 1849,
      "å±ĭ": 1850,
      "è®Ń": 1851,
      "æ¯ķä¸ļ": 1852,
      "æ´¥": 1853,
      "è´µ": 1854,
      "é«ĺåº¦": 1855,
      "è¡¥": 1856,
      "çĥĪ": 1857,
      "çļĦå¤§": 1858,
      "æĿ¯": 1859,
      "ä¼ģ": 1860,
      "åħ»": 1861,
      "æĺł": 1862,
      "-{": 1863,
      "}-": 1864,
      "çĪĨ": 1865,
      "åħ·æľī": 1866,
      "æĺ¯ä¸Ģä¸ª": 1867,
      "æ°ĳä¸»": 1868,
      "è¿Ļä¸Ģ": 1869,
      "é½Ĳ": 1870,
      "è¿Ļç§į": 1871,
      "é»İ": 1872,
      "å®ĭ": 1873,
      "ä¸ªäºº": 1874,
      "60": 1875,
      "ä¸°": 1876,
      "åģĩ": 1877,
      "æŃĮæĽ²": 1878,
      "äººåı£å¯Ĩåº¦": 1879,
      "å¹¶åľ¨": 1880,
      "è®¿": 1881,
      "è¡ĮæĺŁ": 1882,
      "è¡ĮæĶ¿åĮº": 1883,
      "åľ°çĲĨ": 1884,
      "é¦ĸæ¬¡": 1885,
      "ç»ĵæŀĦ": 1886,
      "å®¾": 1887,
      "ãĢĭï¼Ī": 1888,
      "æı´": 1889,
      "åĸľ": 1890,
      "éĥ¨éĺŁ": 1891,
      "æĮ¥": 1892,
      "çĩ": 1893,
      "ä¸»æķĻ": 1894,
      "ä¸ĢèĪ¬": 1895,
      "ç»ĵæĿŁ": 1896,
      "å°º": 1897,
      "æķĳ": 1898,
      "é¡¹çĽ®": 1899,
      "æİ§åĪ¶": 1900,
      "ä¸»å¸Ń": 1901,
      "as": 1902,
      "é²ľ": 1903,
      "éĺ¿å°Ķ": 1904,
      "èĪŀ": 1905,
      "éļ¶": 1906,
      "èľ": 1907,
      "äºĴ": 1908,
      "åħĭåħ°": 1909,
      "å½¢æĪĲ": 1910,
      "å¯¹äºİ": 1911,
      "ç§ĺ": 1912,
      "ac": 1913,
      "è°¢": 1914,
      "æŃ¤å¤ĸ": 1915,
      "åĩºçĶŁ": 1916,
      "è§Ĵèī²": 1917,
      "çĶļ": 1918,
      "è®¯": 1919,
      "æķħäºĭ": 1920,
      "è´§": 1921,
      "æľīä¸Ģ": 1922,
      "±ä¹Ĳ": 1923,
      "å·¡": 1924,
      "ç»§ç»Ń": 1925,
      "ä¸Ńåħ±": 1926,
      "æµ·åĨĽ": 1927,
      "om": 1928,
      "æĹ¶ä»£": 1929,
      "æİ¥åıĹ": 1930,
      "å¤º": 1931,
      "ä¹Ķ": 1932,
      "éĶ¦": 1933,
      "ing": 1934,
      "æī©": 1935,
      "çĸĹ": 1936,
      "å¢ŀåĬł": 1937,
      "è¥¿äºļ": 1938,
      "ig": 1939,
      "æķ°æį®": 1940,
      "éĢłæĪĲ": 1941,
      "æľºæŀĦ": 1942,
      "31": 1943,
      "å»·": 1944,
      "æ¦Ĥ": 1945,
      "æĹłæ³ķ": 1946,
      "è¾Ĩ": 1947,
      "åıĸå¾Ĺ": 1948,
      "èį·": 1949,
      "ä»»ä½ķ": 1950,
      "ç«ŀ": 1951,
      "æıı": 1952,
      "èĩ£": 1953,
      "é¢Ŀ": 1954,
      "åı¦å¤ĸ": 1955,
      "éĻĦè¿ĳ": 1956,
      "è¡ĮåĬ¨": 1957,
      "çļĦæĺ¯": 1958,
      "èĪªç©º": 1959,
      "2007": 1960,
      "å¹´èĩ³": 1961,
      "éĿ©åĳ½": 1962,
      "éĢĶ": 1963,
      "ed": 1964,
      "éľį": 1965,
      "æ¢ģ": 1966,
      "å¸ĿåĽ½": 1967,
      "æĴ¤": 1968,
      "æĮī": 1969,
      "è®²": 1970,
      "é¢Ĩå¯¼": 1971,
      "ç»ĵæŀľ": 1972,
      "åįĪ": 1973,
      "æĸ°éĹ»": 1974,
      "è¶ħè¿ĩ": 1975,
      "è¢Ń": 1976,
      "å¸ģ": 1977,
      "åĮºçļĦ": 1978,
      "åĿĢ": 1979,
      "2001": 1980,
      "ç§ĳåŃ¦": 1981,
      "çīĽ": 1982,
      "çĽĽ": 1983,
      "æĻº": 1984,
      "ç¦ģ": 1985,
      "è¯Ńè¨Ģ": 1986,
      "ä¸įè¿ĩ": 1987,
      "å¾Ħ": 1988,
      "éŁ©åĽ½": 1989,
      "åĬ¨çī©": 1990,
      "èĶ": 1991,
      "ä»ª": 1992,
      "çİī": 1993,
      "ĠL": 1994,
      "100": 1995,
      "åĨĽäºĭ": 1996,
      "ç©Ĩ": 1997,
      "æĭľ": 1998,
      "å¤§åĪ©": 1999,
      "ç½Ĺé©¬": 2000,
      "æĿĲ": 2001,
      "2006": 2002,
      "å°±æĺ¯": 2003,
      "ãĤ": 2004,
      "èĮ¨": 2005,
      "ä»ģ": 2006,
      "å¾ĹåĪ°": 2007,
      "åĨħçļĦ": 2008,
      "æľºåľº": 2009,
      "çī©ç§į": 2010,
      "éĢĤ": 2011,
      "çİ©": 2012,
      "å¥³æĢ§": 2013,
      "å¤Ł": 2014,
      "190": 2015,
      "ä¹Įåħĭåħ°": 2016,
      "ä¸ĢçĽ´": 2017,
      "è¿Ķ": 2018,
      "æ¸Ĳ": 2019,
      "åıĳå¸ĥ": 2020,
      "æĺĮ": 2021,
      "æķ¦": 2022,
      "éª¨": 2023,
      "æīĢä»¥": 2024,
      "80": 2025,
      "å¹³åĿĩ": 2026,
      "us": 2027,
      "ç¿°": 2028,
      "çļĦæĹ¶": 2029,
      "æ··": 2030,
      "ä¼łç»Ł": 2031,
      "è¿ĲåĬ¨åĳĺ": 2032,
      "ä½©": 2033,
      "ï¼Īï¼Įï¼īï¼Į": 2034,
      "èģļ": 2035,
      "çĽĬ": 2036,
      "ç«¥": 2037,
      "åľĨ": 2038,
      "éĥĳ": 2039,
      "åĮ¹": 2040,
      "åĿ¡": 2041,
      "æºª": 2042,
      "æķ°éĩı": 2043,
      "åĪĳ": 2044,
      "è°ĥæŁ¥": 2045,
      "çĶ·åŃĲ": 2046,
      "å±ħæ°ĳ": 2047,
      "éĥİ": 2048,
      "çļĨ": 2049,
      "éĻ¤äºĨ": 2050,
      "èĸ": 2051,
      "ç»ıè¿ĩ": 2052,
      "æŁĵ": 2053,
      "å®½": 2054,
      "ä¹ĭåīį": 2055,
      "æįķ": 2056,
      "åħ¬åĽŃ": 2057,
      "å¤ľ": 2058,
      "2000": 2059,
      "çĬ¯": 2060,
      "åªĴä½ĵ": 2061,
      "çĮ®": 2062,
      "è¿ĩç¨ĭ": 2063,
      "èĮĥåĽ´": 2064,
      "å¨ľ": 2065,
      "å°ıæĹ¶": 2066,
      "éļıåĲİ": 2067,
      "é¸Ł": 2068,
      "æĺ¯ä½įäºİ": 2069,
      "2023": 2070,
      "æĿ¥çļĦ": 2071,
      "åĮºåŁŁ": 2072,
      "çĪ¶äº²": 2073,
      "å²©": 2074,
      "åĨ°": 2075,
      "è¥¿çıŃ": 2076,
      "çºªå¿µ": 2077,
      "æŁĲ": 2078,
      "æİ¢": 2079,
      "èĩªå·±çļĦ": 2080,
      "å·¨": 2081,
      "è¥¿çıŃçīĻ": 2082,
      "çĤ®": 2083,
      "ä¼ĳ": 2084,
      "åįģäºĮ": 2085,
      "è®¨": 2086,
      "åĨħå®¹": 2087,
      "éĿ¢ç§¯ä¸º": 2088,
      "å¥³åŃĲ": 2089,
      "åĲĽ": 2090,
      "åıªæľī": 2091,
      "åºĻ": 2092,
      "éĩįæĸ°": 2093,
      "å±ŀçļĦ": 2094,
      "çĪµ": 2095,
      "ãĢĤâĢĿ": 2096,
      "å®īåħ¨": 2097,
      "ï¼ļâĢľ": 2098,
      "æľīéĻĲ": 2099,
      "éľ²": 2100,
      "è¯ī": 2101,
      "åºŁ": 2102,
      "ç§ģ": 2103,
      "å¦Ĥæŀľ": 2104,
      "å¸®": 2105,
      "id": 2106,
      "æĪª": 2107,
      "éĤ®": 2108,
      "ä¸Ģç§į": 2109,
      "åħ¬è·¯": 2110,
      "å¾Ĵ": 2111,
      "ĠR": 2112,
      "of": 2113,
      "éģĩ": 2114,
      "æĽ¿": 2115,
      "å·¥ä¸ļ": 2116,
      "è½¯": 2117,
      "åħħ": 2118,
      "ä½ł": 2119,
      "è§ī": 2120,
      "æłĩåĩĨ": 2121,
      "æľīåħ³": 2122,
      "èĵĿ": 2123,
      "åıĳè¡¨": 2124,
      "çİ°åľ¨": 2125,
      "å®ĩ": 2126,
      "æķĮ": 2127,
      "ä½įç½®": 2128,
      "and": 2129,
      "2005": 2130,
      "ï¼į": 2131,
      "åĪ»": 2132,
      "åħ±äº§": 2133,
      "åĲ¦": 2134,
      "åħĭæĸ¯": 2135,
      "è·Ł": 2136,
      "ĠG": 2137,
      "åĲ¸": 2138,
      "å»ºè®¾": 2139,
      "70": 2140,
      "åĪº": 2141,
      "æĭ©": 2142,
      "åĢŁ": 2143,
      "ä¸Ńåįİæ°ĳåĽ½": 2144,
      "åĪĽä½ľ": 2145,
      "æĺ¯çĶ±": 2146,
      "ç¼ĸçłģ": 2147,
      "åĨĽéĺŁ": 2148,
      "ç¼º": 2149,
      "èĭıèģĶ": 2150,
      "å£¤": 2151,
      "æ¼Ķåĳĺ": 2152,
      "ç¬¦": 2153,
      "å¹ķ": 2154,
      "åı°åĮĹ": 2155,
      "èµŀ": 2156,
      "èĤ¯": 2157,
      "çīĪæľ¬": 2158,
      "ä¸Ŀ": 2159,
      "æ¼«": 2160,
      "çİ¯å¢ĥ": 2161,
      "åĪĬ": 2162,
      "æĪĪ": 2163,
      "å®ª": 2164,
      "Ġth": 2165,
      "æĹĭ": 2166,
      "å¾¡": 2167,
      "åĮºä¸º": 2168,
      "éĿŀå¸¸": 2169,
      "çİ°ä»£": 2170,
      "æ¬¢": 2171,
      "æĬµ": 2172,
      "ç»ľ": 2173,
      "æ¤įçī©": 2174,
      "åĲįçļĦ": 2175,
      "æī¾": 2176,
      "èµĽäºĭ": 2177,
      "çĶŁçī©": 2178,
      "åıįåºĶ": 2179,
      "éĽª": 2180,
      "ä¸ŃåŃ¦": 2181,
      "ä¹±": 2182,
      "åıįå¯¹": 2183,
      "è®®ä¼ļ": 2184,
      "è¯¸": 2185,
      "éĢĥ": 2186,
      "çĶ³": 2187,
      "ç®¡è¾ĸ": 2188,
      "ç¬¬åĽĽ": 2189,
      "éĿł": 2190,
      "èģĶéĤ¦": 2191,
      "35": 2192,
      "ä¹¦è®°": 2193,
      "åĩºçļĦ": 2194,
      "æ¿Ģ": 2195,
      "æ°ĳæĹı": 2196,
      "æįŁ": 2197,
      "æĶ¹ä¸º": 2198,
      "åģ¥": 2199,
      "éĽ¨": 2200,
      "åįıä¼ļ": 2201,
      "ĠD": 2202,
      "ä¾µ": 2203,
      "ä¸»ä»»": 2204,
      "åĲįç§°": 2205,
      "90": 2206,
      "ç¾İåħĥ": 2207,
      "çľ¼": 2208,
      "æķĻæİĪ": 2209,
      "ä½ĵèĤ²": 2210,
      "éªĳ": 2211,
      "å°¤": 2212,
      "ä¸¾åĬŀ": 2213,
      "un": 2214,
      "æł¼åħ°": 2215,
      "èĢ³": 2216,
      "æĪĳä»¬": 2217,
      "åĶ¯": 2218,
      "å°ıè¡ĮæĺŁ": 2219,
      "å«": 2220,
      "è¡Įä¸º": 2221,
      "æĢ¥": 2222,
      "æ±ĩ": 2223,
      "é»ĺ": 2224,
      "æĮĩæĮ¥": 2225,
      "æ´ª": 2226,
      "ç»©": 2227,
      "ä¹İ": 2228,
      "åı¬": 2229,
      "æľĢä½³": 2230,
      "ĠH": 2231,
      "éĤ»": 2232,
      "è®¾ç«ĭ": 2233,
      "ä¸Ģèµ·": 2234,
      "æĢĢ": 2235,
      "æ®¿": 2236,
      "æĹ¶çļĦ": 2237,
      "ad": 2238,
      "çĽ´æİ¥": 2239,
      "éĴĪ": 2240,
      "èª": 2241,
      "åĽº": 2242,
      "å¾ħ": 2243,
      "ç¿»": 2244,
      "è®®åĳĺ": 2245,
      "æ³ķéĻ¢": 2246,
      "çĹĩ": 2247,
      "èģĮä¸ļ": 2248,
      "åħ±åĲĮ": 2249,
      "è·Ŀç¦»": 2250,
      "éĢīæĭ©": 2251,
      "èĩªæ²»": 2252,
      "åĳ¼": 2253,
      "å°ıè¯´": 2254,
      "è¿«": 2255,
      "æ¶¯": 2256,
      "åľ°çļĦ": 2257,
      "ä¹Łæľī": 2258,
      "æĹ¥åľ¨": 2259,
      "è®¢": 2260,
      "åħ¬å¼Ģ": 2261,
      "èµĦæĸĻ": 2262,
      "ç©¿": 2263,
      "éĥ¨éķ¿": 2264,
      "åħĦ": 2265,
      "ç¾½": 2266,
      "æ¯ģ": 2267,
      "ï¼ļï¼ī": 2268,
      "ä¸ŃåĽ½å¤§éĻĨ": 2269,
      "åĮħåĲ«": 2270,
      "å¥ī": 2271,
      "èµµ": 2272,
      "å½¢å¼ı": 2273,
      "ent": 2274,
      "æĸ°çļĦ": 2275,
      "å¤ĦçĲĨ": 2276,
      "å¹¶ä¸į": 2277,
      "åŁ¹": 2278,
      "ä¼ģä¸ļ": 2279,
      "éļĶ": 2280,
      "ç»¿": 2281,
      "è¿ĲåĬ¨ä¼ļ": 2282,
      "å¤§éĩı": 2283,
      "ä¸ľåĮĹ": 2284,
      "åĪĨä¸º": 2285,
      "çĤ¸": 2286,
      "æ±½": 2287,
      "è¿ĺæľī": 2288,
      "çĶµåŃĲ": 2289,
      "æĦ¿": 2290,
      "å°Ķæĸ¯": 2291,
      "éĨ": 2292,
      "èĥŀ": 2293,
      "æĪĺæĸĹ": 2294,
      "ĠF": 2295,
      "è°Ī": 2296,
      "å®¶åºŃ": 2297,
      "æ¦ľ": 2298,
      "æĸ¹æ³ķ": 2299,
      "åį·": 2300,
      "è¡Ĺéģĵ": 2301,
      "æĵį": 2302,
      "è°ĭ": 2303,
      "åĨ³èµĽ": 2304,
      "éĥ½æĺ¯": 2305,
      "çĸĳ": 2306,
      "å¹´éĹ´": 2307,
      "æĺ¾ç¤º": 2308,
      "é¡¾": 2309,
      "æī§è¡Į": 2310,
      "åĪ©çĶ¨": 2311,
      "çģŃ": 2312,
      "èĦĳ": 2313,
      "å®Įåħ¨": 2314,
      "å¹¶äºİ": 2315,
      "åı¦ä¸Ģ": 2316,
      "æ¶ī": 2317,
      "éľĩ": 2318,
      "2004": 2319,
      "åĮ»éĻ¢": 2320,
      "éĴ±": 2321,
      "è¯¾": 2322,
      "åĿļ": 2323,
      "åĲ¬": 2324,
      "å°ĨåĨĽ": 2325,
      "æīİ": 2326,
      "æĬ¥åĳĬ": 2327,
      "çľģä»½": 2328,
      "å¤ļæķ°": 2329,
      "çĽ´åĪ°": 2330,
      "çĶŁæ¶¯": 2331,
      "æµĻ": 2332,
      "å¦»": 2333,
      "çĶļèĩ³": 2334,
      "è£ģ": 2335,
      "èĪį": 2336,
      "è¿Ļæĺ¯": 2337,
      "æĪ´": 2338,
      "éĵ¶è¡Į": 2339,
      "å¸Ĥåľº": 2340,
      "é¢Ĺ": 2341,
      "åĬ¨çĶ»": 2342,
      "æĦıå¤§åĪ©": 2343,
      "åĨįæ¬¡": 2344,
      "æ¡ĳ": 2345,
      "ä¹Ī": 2346,
      "èİī": 2347,
      "çļĦä¸Ģä¸ªå¸Ĥéķĩ": 2348,
      "ow": 2349,
      "åĬª": 2350,
      "ur": 2351,
      "è¯¥åĽ½": 2352,
      "od": 2353,
      "æ³ķå¾ĭ": 2354,
      "å¿ħé¡»": 2355,
      "éŃĶ": 2356,
      "èĦ±": 2357,
      "åĲİçļĦ": 2358,
      "ç«¹": 2359,
      "æĶ¿çŃĸ": 2360,
      "å®¶æĹı": 2361,
      "åħ³äºİ": 2362,
      "çĥŃå¸¦": 2363,
      "èĩªçĦ¶": 2364,
      "2024": 2365,
      "æµ·æĭĶé«ĺåº¦": 2366,
      "æĢ§çļĦ": 2367,
      "èĬ¬": 2368,
      "åŃ©": 2369,
      "45": 2370,
      "åŃ¦ä¹ł": 2371,
      "èŀį": 2372,
      "æŁı": 2373,
      "ä¸īå¹´": 2374,
      "å¹¿ä¸ľ": 2375,
      "åŃĶ": 2376,
      "æĶ¿æ²»äººçī©": 2377,
      "éķľ": 2378,
      "æ¯«": 2379,
      "å¿ł": 2380,
      "è¾Ľ": 2381,
      "åį±": 2382,
      "ï¼ļãĢĮ": 2383,
      "äºļæ´²": 2384,
      "he": 2385,
      "æ³Ľ": 2386,
      "ç¿¼": 2387,
      "èĿ": 2388,
      "å®ĥä»¬": 2389,
      "çĸ«": 2390,
      "æ®ĸ": 2391,
      "å§ĵ": 2392,
      "ç»į": 2393,
      "æľĿé²ľ": 2394,
      "çĽĺ": 2395,
      "å¤§ä¼ļ": 2396,
      "ä¹°": 2397,
      "ä¸ĭçļĦ": 2398,
      "ç¯ĩ": 2399,
      "ä¸ºä¸»": 2400,
      "ç§ĭ": 2401,
      "æĺ¯ä¸Ģç§į": 2402,
      "æ¨ª": 2403,
      "åĽ¢ä½ĵ": 2404,
      "æĸĩåŃ¦": 2405,
      "å¥ı": 2406,
      "åĿĲ": 2407,
      "æĸĩçī©": 2408,
      "å¾Ĳ": 2409,
      "ç¼ĸçłģä¸º": 2410,
      "å¢ĥåĨħ": 2411,
      "çĲĨè®º": 2412,
      "æģĴ": 2413,
      "åŁºç¡": 2414,
      "éģ¿": 2415,
      "å»ºäºİ": 2416,
      "æļĤ": 2417,
      "åħ¬åħ±": 2418,
      "æģ¶": 2419,
      "è¥¿éĥ¨": 2420,
      "ç¼©": 2421,
      "åĳĪ": 2422,
      "è·¯çº¿": 2423,
      "è´¡": 2424,
      "æĸ¯åĿ¦": 2425,
      "æĥł": 2426,
      "è¡ĮæĶ¿åĮºåĪĴ": 2427,
      "Ġof": 2428,
      "48": 2429,
      "æ»¨": 2430,
      "äººç±»": 2431,
      "ä»¥æĿ¥": 2432,
      "åĿĹ": 2433,
      "ç´§": 2434,
      "ç±»ä¼¼": 2435,
      "åĪļ": 2436,
      "èīĩ": 2437,
      "åĿı": 2438,
      "æĭįæĳĦ": 2439,
      "å¸ĮæľĽ": 2440,
      "å®ŀéĻħ": 2441,
      "ç¦»å¼Ģ": 2442,
      "åŁºæľ¬": 2443,
      "åŁºç¡Ģ": 2444,
      "åĪ¶éĢł": 2445,
      "èĨ": 2446,
      "çº¦ç¿°": 2447,
      "åķĨä¸ļ": 2448,
      "å®ĺæĸ¹": 2449,
      "æĶ»åĩ»": 2450,
      "èĥ½åĬĽ": 2451,
      "äºİæĺ¯": 2452,
      "ï¼ĮãĢĬ": 2453,
      "çºªå½ķ": 2454,
      "åĬŁèĥ½": 2455,
      "çĶĺ": 2456,
      "ä¸ľéĥ¨": 2457,
      "ĠI": 2458,
      "æĭīæĸ¯": 2459,
      "æ³ī": 2460,
      "åĬłæĭ¿": 2461,
      "æŀļ": 2462,
      "è§£æĶ¾": 2463,
      "æŃ»äº¡": 2464,
      "å¢ĵ": 2465,
      "èĦī": 2466,
      "æĹ©æľŁ": 2467,
      "ä»ĺ": 2468,
      "Ġthe": 2469,
      "âĢĶâĢĶ": 2470,
      "ä¹ĭéĹ´çļĦ": 2471,
      "æİ¥å£¤": 2472,
      "ä½Ĳ": 2473,
      "å½ĵä¸Ń": 2474,
      "èĳ£": 2475,
      "éĵľ": 2476,
      "å°½ç®¡": 2477,
      "å¤ĸäº¤": 2478,
      "èµĸ": 2479,
      "ä¼į": 2480,
      "è¯¯": 2481,
      "èĥ½å¤Ł": 2482,
      "æī¬": 2483,
      "éĻµ": 2484,
      "åħ¨çĲĥ": 2485,
      "è¡¨çİ°": 2486,
      "èķ": 2487,
      "ä¸¥éĩį": 2488,
      "æłĸ": 2489,
      "æ½®": 2490,
      "å¹¿æĴŃ": 2491,
      "çļĦåľ°": 2492,
      "ç¬¬åįģ": 2493,
      "æ½ľ": 2494,
      "åĨ¬": 2495,
      "å¯»": 2496,
      "ä½ľçĶ¨": 2497,
      "æľĢåĪĿ": 2498,
      "æ°§": 2499,
      "æŀĲ": 2500,
      "å¢¨": 2501,
      "éĶ¡": 2502,
      "ç©ºéĹ´": 2503,
      "èħĬ": 2504,
      "å¥Ĺ": 2505,
      "æ¼Ķåĩº": 2506,
      "éĺ»": 2507,
      "ä¸įæĺ¯": 2508,
      "Ġd": 2509,
      "æĽ¾ç»ı": 2510,
      "åħ±äº§åħļ": 2511,
      "æııè¿°": 2512,
      "å¤§åĮº": 2513,
      "çĳŁ": 2514,
      "ĠW": 2515,
      "æİ¨åĩº": 2516,
      "ä¸ľåįĹ": 2517,
      "2003": 2518,
      "åİ»ä¸ĸ": 2519,
      "è¿¹": 2520,
      "ä»»åĬ¡": 2521,
      "éŃı": 2522,
      "èµ¤": 2523,
      "çº²": 2524,
      "å¹´äººåı£": 2525,
      "æ±ł": 2526,
      "å·´å£«": 2527,
      "å»ī": 2528,
      "è´¸": 2529,
      "åįļçī©": 2530,
      "ä¸īä¸ª": 2531,
      "åĪĨå¸ĥäºİ": 2532,
      "36": 2533,
      "è§Ħæ¨¡": 2534,
      "äºĭåĬ¡": 2535,
      "åįķæĽ²": 2536,
      "åħ¶åĲİ": 2537,
      "ä¸Ģå¹´": 2538,
      "äºķ": 2539,
      "è®¡ç®Ĺ": 2540,
      "è¡£": 2541,
      "æľĪåı°": 2542,
      "æĮĩåĩº": 2543,
      "è¿Ľå£«": 2544,
      "å¥¹çļĦ": 2545,
      "æį·": 2546,
      "åı·çº¿": 2547,
      "å®ľ": 2548,
      "ãĢįï¼Ī": 2549,
      "è¿·": 2550,
      "ä¸Ģæ¬¡": 2551,
      "æµĻæ±Ł": 2552,
      "æĸ¹åĲĳ": 2553,
      "ä¸ľäº¬": 2554,
      "æĻ®æŁ¥": 2555,
      "å¤ªéĺ³": 2556,
      "åģı": 2557,
      "¤Ĳ": 2558,
      "çŁ¿": 2559,
      "å¥¥æŀĹ": 2560,
      "ç¼ĺ": 2561,
      "ir": 2562,
      "å®ļçļĦ": 2563,
      "å¼ĥ": 2564,
      "é©¬æĿ¥": 2565,
      "åĨ·": 2566,
      "èıĮ": 2567,
      "è¾¾åĪ°": 2568,
      "å°Ĩåħ¶": 2569,
      "æģĲ": 2570,
      "ä¸įèĥ½": 2571,
      "ä¸»æĮģ": 2572,
      "çĶº": 2573,
      "å¤ªå¹³": 2574,
      "æľīéĻĲåħ¬åı¸": 2575,
      "èªī": 2576,
      "ç»Łæ²»": 2577,
      "è¿İ": 2578,
      "åĬłæĭ¿å¤§": 2579,
      "os": 2580,
      "è¾ħ": 2581,
      "å¤ıåŃ£": 2582,
      "åĲĪå¹¶": 2583,
      "éĹŃ": 2584,
      "åħ¬å¸ĥ": 2585,
      "åĽ½çİĭ": 2586,
      "èĢĮä¸Ķ": 2587,
      "èĤī": 2588,
      "åĿĳ": 2589,
      "ç»¼": 2590,
      "38": 2591,
      "äº«": 2592,
      "æĴŃåĩº": 2593,
      "å¹´åľ¨": 2594,
      "æ¸¡": 2595,
      "ĠE": 2596,
      "è¸": 2597,
      "èĴĻåı¤": 2598,
      "åľĪ": 2599,
      "è®¾æĸ½": 2600,
      "å¹¿å·ŀ": 2601,
      "è¥¿åĮĹ": 2602,
      "åĲĦç§į": 2603,
      "ç¬¬ä¸Ģæ¬¡": 2604,
      "âĢ¦": 2605,
      "åĶ¯ä¸Ģ": 2606,
      "ä¼°": 2607,
      "37": 2608,
      "ä»įçĦ¶": 2609,
      "æ¨¡å¼ı": 2610,
      "å¥¥æŀĹåĮ¹": 2611,
      "2002": 2612,
      "éģĵè·¯": 2613,
      "çĲ´": 2614,
      "å½ĵéĢī": 2615,
      "im": 2616,
      "é³į": 2617,
      "åĵ²": 2618,
      "äº§åĵģ": 2619,
      "èĻ«": 2620,
      "åİŁåĽł": 2621,
      "è¿ŀæİ¥": 2622,
      "å°Ķçľģ": 2623,
      "ter": 2624,
      "å¹´åº¦": 2625,
      "æĭĽ": 2626,
      "æĺĤ": 2627,
      "è¢«ç§°ä¸º": 2628,
      "è¥¿åįĹ": 2629,
      "å±±ä¸ľ": 2630,
      "éĶ¦æłĩ": 2631,
      "ç¹": 2632,
      "é¢ģ": 2633,
      "çĽ¸å½ĵ": 2634,
      "èµĽåŃ£": 2635,
      "å¥Ī": 2636,
      "åıĺåĮĸ": 2637,
      "åľ¨æŃ¤": 2638,
      "ä¸ĢåĲį": 2639,
      "iv": 2640,
      "éĩĮæĸ¯": 2641,
      "æĮģç»Ń": 2642,
      "æ¼ĶåĶ±": 2643,
      "è·¨": 2644,
      "éĺ´": 2645,
      "èµ¢": 2646,
      "å®ĹæķĻ": 2647,
      "ä¸ĵä¸ļ": 2648,
      "çıł": 2649,
      "äººå£«": 2650,
      "äº®": 2651,
      "å®ŀéªĮ": 2652,
      "ç»ĺ": 2653,
      "ec": 2654,
      "éĢıè¿ĩ": 2655,
      "åĮĸåŃ¦": 2656,
      "å¼ĢæĶ¾": 2657,
      "çº½çº¦": 2658,
      "å¦ĩ": 2659,
      "æģ¢": 2660,
      "åĨĪ": 2661,
      "æ¶ħ": 2662,
      "ia": 2663,
      "ï¼Īï¼Įï¼ī": 2664,
      "éĴ¢": 2665,
      "ãĢĤãĢį": 2666,
      "æĢ»äººåı£": 2667,
      "åįļçī©é¦Ĩ": 2668,
      "æ»ĳ": 2669,
      "å¥¥æŀĹåĮ¹åħĭ": 2670,
      "Ġ\"": 2671,
      "çļĦä¸»": 2672,
      "éĺ¿æĭī": 2673,
      "åįĸ": 2674,
      "æĤ£": 2675,
      "åīĳ": 2676,
      "çĬ¹": 2677,
      "ä½¿å¾Ĺ": 2678,
      "ra": 2679,
      "çĽ®æłĩ": 2680,
      "å½©": 2681,
      "å¦¹": 2682,
      "ç¹ģ": 2683,
      "ä¸įåĲĮçļĦ": 2684,
      "æİĴåĲį": 2685,
      "189": 2686,
      "ä¸Ģæł·": 2687,
      "éĢĬ": 2688,
      "èĻİ": 2689,
      "åĦ¿åŃĲ": 2690,
      "34": 2691,
      "èĳ¡": 2692,
      "ä»ĸä»¬çļĦ": 2693,
      "åĬŀåħ¬": 2694,
      "éļľ": 2695,
      "é©±": 2696,
      "æļĹ": 2697,
      "éº»": 2698,
      "IN": 2699,
      "éĢĲæ¸Ĳ": 2700,
      "æ¢¦": 2701,
      "ä¹Ļ": 2702,
      "ãĢī": 2703,
      "ot": 2704,
      "æĭĴ": 2705,
      "è®Ńç»ĥ": 2706,
      "æģ¢å¤į": 2707,
      "ãĢĪ": 2708,
      "èĢħçļĦ": 2709,
      "è½¨éģĵ": 2710,
      "æ´ŀ": 2711,
      "è±ª": 2712,
      "ä¼Ĳ": 2713,
      "è¾ŀ": 2714,
      "ç¨³": 2715,
      "han": 2716,
      "ç½ĳç»ľ": 2717,
      "å¯¿": 2718,
      "çĲĥåĳĺ": 2719,
      "çĽ¸åĲĮ": 2720,
      "è§Ħå®ļ": 2721,
      "æŃĮæīĭ": 2722,
      "é£İæł¼": 2723,
      "è¶ĬåįĹ": 2724,
      "éĶĻ": 2725,
      "åĳ³": 2726,
      "åīĤ": 2727,
      "75": 2728,
      "åĽĽå¹´": 2729,
      "åı¸ä»¤": 2730,
      "æ¾³éĹ¨": 2731,
      "é«ĺéĢŁ": 2732,
      "èİİ": 2733,
      "åºĶçĶ¨": 2734,
      "åĲķ": 2735,
      "éĿĴå¹´": 2736,
      "å®ļä¹ī": 2737,
      "åĩ¤": 2738,
      "åıĳåĬ¨": 2739,
      "è¿Ļæł·": 2740,
      "åĢĴ": 2741,
      "é£ŀæľº": 2742,
      "å¥¥è¿Ĳ": 2743,
      "ç»Ĩèĥŀ": 2744,
      "um": 2745,
      "å¾½": 2746,
      "åĪĹè¡¨": 2747,
      "ç§Ł": 2748,
      "em": 2749,
      "èĽĭ": 2750,
      "ä¿±ä¹Ĳ": 2751,
      "èĦļ": 2752,
      "åĨĮ": 2753,
      "å´ĩ": 2754,
      "ç¡¬": 2755,
      "åĩ»è´¥": 2756,
      "ä¿±ä¹Ĳéĥ¨": 2757,
      "æ¯įäº²": 2758,
      "çŃīäºº": 2759,
      "åı«": 2760,
      "éĺģ": 2761,
      "éĤĢ": 2762,
      "çĽĲ": 2763,
      "éĻ¶": 2764,
      "æľĢå¤§": 2765,
      "ä¸ºäºº": 2766,
      "æ¡£": 2767,
      "ç¤¾åĮº": 2768,
      "è§¦": 2769,
      "éĥ¨éĹ¨": 2770,
      "æľºè½¦": 2771,
      "âĢĭâĢĭâĢĭâĢĭ": 2772,
      "ä¾¯": 2773,
      "æĪĲç»©": 2774,
      "å¢Ļ": 2775,
      "%ï¼Į": 2776,
      "ation": 2777,
      "ä¸įä¼ļ": 2778,
      "è®¾ç½®": 2779,
      "å¸ĮèħĬ": 2780,
      "å¯¼æ¼Ķ": 2781,
      "å½¼": 2782,
      "è¯Ĭ": 2783,
      "åŁºçĿ£": 2784,
      "Ġc": 2785,
      "éĢĿ": 2786,
      "éĿĻ": 2787,
      "çĴ": 2788,
      "æĬķèµĦ": 2789,
      "å¾Īå¤ļ": 2790,
      "39": 2791,
      "çģ¾": 2792,
      "Ġs": 2793,
      "å»ºéĢł": 2794,
      "è£Ķ": 2795,
      "ç¬¬äºĶ": 2796,
      "åįļå£«": 2797,
      "çļĦä¸Ģéĥ¨åĪĨ": 2798,
      "åįĹäº¬": 2799,
      "1990": 2800,
      "æµ¦": 2801,
      "åŁİåĮº": 2802,
      "ä»Ļ": 2803,
      "ä¿Ĺ": 2804,
      "ä¸¤äºº": 2805,
      "å¤§éĥ¨åĪĨ": 2806,
      "èĥĮæĻ¯": 2807,
      "çĶµè§Ĩåı°": 2808,
      "éĺ¶æ®µ": 2809,
      "æ¶²": 2810,
      "ï¼ĮâĢľ": 2811,
      "åľŁåľ°": 2812,
      "å¹´èµ·": 2813,
      "å¹¼": 2814,
      "èµı": 2815,
      "ç¬Ķ": 2816,
      "ç§¦": 2817,
      "ãĢįãĢģ": 2818,
      "åĽĽå·Ŀ": 2819,
      "åĩ½": 2820,
      "çº¸": 2821,
      "åĪ¶åº¦": 2822,
      "å°Ĭ": 2823,
      "ç®Ģç§°": 2824,
      "åĽ°": 2825,
      "è£Ĥ": 2826,
      "å¤§æĪĺ": 2827,
      "åĪĨéĴŁ": 2828,
      "32": 2829,
      "éĽ¶": 2830,
      "æī¹è¯Ħ": 2831,
      "ä¸īåįģ": 2832,
      "æĭŁ": 2833,
      "55": 2834,
      "èļ": 2835,
      "çļĦæĸ°": 2836,
      "çĪĨåıĳ": 2837,
      "å¸®åĬ©": 2838,
      "èīĺ": 2839,
      "ç¨İ": 2840,
      "çĸĨ": 2841,
      "ĠN": 2842,
      "æ²ī": 2843,
      "ç»´å°Ķ": 2844,
      "ç¾¤å²Ľ": 2845,
      "èº«ä»½": 2846,
      "åħ¨éĥ¨": 2847,
      "æĶ¹éĿ©": 2848,
      "åĲįåŃĹ": 2849,
      "æĪĺå½¹": 2850,
      "åŃ¦èĢħ": 2851,
      "éĻĨåĨĽ": 2852,
      "ä¸įä¹ħ": 2853,
      "èŃ¦å¯Ł": 2854,
      "çļĦçī¹": 2855,
      "ä¿ĥ": 2856,
      "æĺŃ": 2857,
      "è®°è½½": 2858,
      "ç²ī": 2859,
      "br": 2860,
      "æ®ĭ": 2861,
      "å¹¿åľº": 2862,
      "ä¼¦æķ¦": 2863,
      "46": 2864,
      "éĻ·": 2865,
      "æ±½è½¦": 2866,
      "è¯Ħè®º": 2867,
      "åľ°ä¸ĭ": 2868,
      "éĢŁåº¦": 2869,
      "éķĩåĮº": 2870,
      "åĪĨç±»": 2871,
      "æ¼«çĶ»": 2872,
      "ç»ķ": 2873,
      "æķ´ä¸ª": 2874,
      "æŁ±": 2875,
      "éĥŃ": 2876,
      "çĶ·æĢ§": 2877,
      "ä½Ĩåľ¨": 2878,
      "è§ĦåĪĴ": 2879,
      "ag": 2880,
      "åĳ½åĲį": 2881,
      "èĭ±è¯Ń": 2882,
      "ä¸Ńéĥ¨": 2883,
      "äº¨": 2884,
      "è®·": 2885,
      "æĮ¯": 2886,
      "æ¯«ç±³": 2887,
      "æ¥ļ": 2888,
      "ç¬¬äºĮæ¬¡": 2889,
      "å¹¸": 2890,
      "çī§": 2891,
      "åľ°çĲĥ": 2892,
      "æİĮ": 2893,
      "çĦ¶åĲİ": 2894,
      "é£ŀè¡Į": 2895,
      "å¤ļçļĦ": 2896,
      "è¿ŀç»Ń": 2897,
      "é¼ĵ": 2898,
      "å°Ķå¾·": 2899,
      "æµª": 2900,
      "é©¶": 2901,
      "çİ©å®¶": 2902,
      "æĺ¯æ³ķåĽ½": 2903,
      "ä¸ĺ": 2904,
      "ç«ĭæ³ķ": 2905,
      "å»ºè®®": 2906,
      "ä¼Ł": 2907,
      "è¿Ī": 2908,
      "33": 2909,
      "æŁ¯": 2910,
      "æĸ¯ç§ĳ": 2911,
      "è§Ī": 2912,
      "å¤§çº¦": 2913,
      "1999": 2914,
      "åĪĨæŀĲ": 2915,
      "%ãĢĤ": 2916,
      "æĺĨ": 2917,
      "igh": 2918,
      "\"ï¼ī": 2919,
      "åħģ": 2920,
      "op": 2921,
      "èµĦæł¼": 2922,
      "å¼±": 2923,
      "æĿĤå¿Ĺ": 2924,
      "ç¦ıå»º": 2925,
      "å¤©ä¸»æķĻ": 2926,
      "è¡¨æ¼Ķ": 2927,
      "è´Ŀå°Ķ": 2928,
      "åģ¶": 2929,
      "ç§ĳæĬĢ": 2930,
      "è´¸æĺĵ": 2931,
      "çĸ¾": 2932,
      "ä¿¡æģ¯": 2933,
      "å¼ķèµ·": 2934,
      "èĶ¡": 2935,
      "èĲĦ": 2936,
      "åħĪåĲİ": 2937,
      "åľ°åĮºçļĦ": 2938,
      "æ²³åįĹ": 2939,
      "èĳ¡èĲĦ": 2940,
      "åı¯ä»¥æĮĩ": 2941,
      "ç»ıå¸¸": 2942,
      "ç»ª": 2943,
      "1998": 2944,
      "çŃīåľ°": 2945,
      "åĪĻæĺ¯": 2946,
      "æµģè¡Į": 2947,
      "65": 2948,
      "è¾½": 2949,
      "æĽ¾ä»»": 2950,
      "47": 2951,
      "éĶ¦æłĩèµĽ": 2952,
      "ä½ľå®¶": 2953,
      "ä»»åĳ½": 2954,
      "æĭĨ": 2955,
      "æ¯Ķäºļ": 2956,
      "å¹³åı°": 2957,
      "ç½ĳç«Ļ": 2958,
      "æĪĸèĢħ": 2959,
      "æŃ¦åĻ¨": 2960,
      "è¿Ŀ": 2961,
      "äºĶå¹´": 2962,
      "æĿ¡ä»¶": 2963,
      "èµ¢å¾Ĺ": 2964,
      "äººåı£æĻ®æŁ¥": 2965,
      "è¿Ĳè¾ĵ": 2966,
      "é½¿": 2967,
      "çī©çĲĨ": 2968,
      "ä»¥ä¸Ĭ": 2969,
      "æĹ¥èĩ³": 2970,
      "çļĦä¸»è¦ģ": 2971,
      "1980": 2972,
      "åĲĮæł·": 2973,
      "åĩºä»»": 2974,
      "éģŃåĪ°": 2975,
      "å¤Ħäºİ": 2976,
      "èĭ±æĸĩ": 2977,
      "å½±çīĩ": 2978,
      "SE": 2979,
      "åĪĨåŃĲ": 2980,
      "ç»ıèĲ¥": 2981,
      "æĢ»éĿ¢ç§¯": 2982,
      "ç¥Ń": 2983,
      "æĲŃ": 2984,
      "çº¿çļĦ": 2985,
      "åħ¬å°º": 2986,
      "å¥¥æŀĹåĮ¹åħĭè¿ĲåĬ¨ä¼ļ": 2987,
      "è½¦è¾Ĩ": 2988,
      "ç¾İæ´²": 2989,
      "æ£Ĵ": 2990,
      "çĭ±": 2991,
      "çº¿è·¯": 2992,
      "ä¸ļåĬ¡": 2993,
      "æ³¢åħ°": 2994,
      "åĩıå°ĳ": 2995,
      "ç¯®": 2996,
      "è®°å½ķ": 2997,
      "é¤Ĳ": 2998,
      "å²Ń": 2999,
      "å®ħ": 3000,
      "äººä»¬": 3001,
      "é¢ĨåŁŁ": 3002,
      "åĩºçĶŁäºİ": 3003,
      "ä½įäºİè¯¥åĽ½": 3004,
      "å¤©æ´¥": 3005,
      "å±ħä½ı": 3006,
      "å¹ħ": 3007,
      "æĺİæľĿ": 3008,
      "ä¿ĿæĮģ": 3009,
      "çģ¯": 3010,
      "åŃ¦ä½į": 3011,
      "å¤ļæ¬¡": 3012,
      "çĩĥ": 3013,
      "æŃ¤åĲİ": 3014,
      "âĢĿï¼Ī": 3015,
      "å¹´ç¾İåĽ½": 3016,
      "Ġt": 3017,
      "æķı": 3018,
      "å·ŀå¸Ĥ": 3019,
      "å®¿": 3020,
      "æķĻåłĤ": 3021,
      "ç»Łè®¡": 3022,
      "åıĸä»£": 3023,
      "æľĢå¤§çļĦ": 3024,
      "èĻĳ": 3025,
      "ä¸ĭè¾ĸçļĦä¸Ģä¸ª": 3026,
      "æĪªèĩ³": 3027,
      "è¿ĩåİ»": 3028,
      "æĭĴç»Ŀ": 3029,
      "ä¸Ńæĸĩ": 3030,
      "ä¼´": 3031,
      "è®¾å¤ĩ": 3032,
      "æ²Ī": 3033,
      "åİ¦": 3034,
      "æĹģ": 3035,
      "éķ¿çļĦ": 3036,
      "ä»Ķ": 3037,
      "TC": 3038,
      "âĢĵ": 3039,
      "ç¢ĳ": 3040,
      "è¯¥åľ°": 3041,
      "é¢ĳéģĵ": 3042,
      "éĤ®æĶ¿": 3043,
      "åįłé¢Ĩ": 3044,
      "ç»ıåİĨ": 3045,
      "åħĥå¹´": 3046,
      "è·ĳ": 3047,
      "ä¹ĥ": 3048,
      "æľĢæĹ©": 3049,
      "æĽ¹": 3050,
      "èİ·å¾ĹäºĨ": 3051,
      "ç±»åŀĭ": 3052,
      "æ©": 3053,
      "æĶ¹åıĺ": 3054,
      "è®°èĢħ": 3055,
      "äºīè®®": 3056,
      "èĳ¬": 3057,
      "é¾Ħ": 3058,
      "ĠK": 3059,
      "åĨħéĥ¨": 3060,
      "å®ĺåĳĺ": 3061,
      "åĽ¾ä¹¦": 3062,
      "å®£ä¼ł": 3063,
      "åŁĶ": 3064,
      "æĹ¥èµ·": 3065,
      "æ±Ĺ": 3066,
      "åıĳå°Ħ": 3067,
      "åįıåĬ©": 3068,
      "èıľ": 3069,
      "èĹ¤": 3070,
      "æ±¤": 3071,
      "å¤ļä¸ª": 3072,
      "æ¯Ķè¾ĥ": 3073,
      "è½´": 3074,
      "æłĸæģ¯": 3075,
      "500": 3076,
      "éļĲ": 3077,
      "1997": 3078,
      "åĨľä¸ļ": 3079,
      "æ¯ıå¹´": 3080,
      "èį·åħ°": 3081,
      "49": 3082,
      "é¢ľ": 3083,
      "ç¬¬ä¸Ģä¸ª": 3084,
      "çĬ¶æĢģ": 3085,
      "åĭĩ": 3086,
      "ay": 3087,
      "åĩłä¹İ": 3088,
      "è¿Ĳè¡Į": 3089,
      "çĶµè§Ĩåī§": 3090,
      "ä½ľæĪĺ": 3091,
      "åŃŁ": 3092,
      "å·ŀçļĦ": 3093,
      "æ·¡": 3094,
      "Ġp": 3095,
      "æ®Ĭ": 3096,
      "çļĦæĥħåĨµ": 3097,
      "çĶŁäºİ": 3098,
      "å¤ıä»¤": 3099,
      "ä¸ĢæŃ¥": 3100,
      "ä¼Ĭæĸ¯": 3101,
      "æľīçļĦ": 3102,
      "188": 3103,
      "æģĭ": 3104,
      "å·¦åı³": 3105,
      "åıĻ": 3106,
      "ç³ĸ": 3107,
      "ãĢĤãĢĬ": 3108,
      "æĮĳ": 3109,
      "åĽ½çļĦ": 3110,
      "èĻļ": 3111,
      "å®ŀçİ°": 3112,
      "æ°´åŁŁ": 3113,
      "æ¾³å¤§": 3114,
      "åľ°éĵģ": 3115,
      "å¦®": 3116,
      "éĥ¨ä»½": 3117,
      "åŁİéķĩ": 3118,
      "çĹħæ¯Ĵ": 3119,
      "åĩĨå¤ĩ": 3120,
      "å¹¿æ³Ľ": 3121,
      "çĽ¸å¯¹": 3122,
      "å®ŀæĸ½": 3123,
      "å¹´åĲİ": 3124,
      "è¿ĺæĺ¯": 3125,
      "éĽķ": 3126,
      "å¡ŀå°Ķ": 3127,
      "åıĤèµĽ": 3128,
      "åĽŀåĪ°": 3129,
      "çļĦå½±åĵį": 3130,
      "éĶ®": 3131,
      "çº¯": 3132,
      "é©¬æĿ¥è¥¿äºļ": 3133,
      "éģį": 3134,
      "è´Łè´£ç®¡è¾ĸ": 3135,
      "è¡¡": 3136,
      "æĸĩçī©ä¿ĿæĬ¤": 3137,
      "éĻĲåĪ¶": 3138,
      "å£ģ": 3139,
      "çŃ¹": 3140,
      "ĠO": 3141,
      "ãĢįãĢģãĢĮ": 3142,
      "æ²»çĸĹ": 3143,
      "åĤ¨": 3144,
      "åĦ¿ç«¥": 3145,
      "çĥ§": 3146,
      "åĽ½ä¼ļ": 3147,
      "åıĬåħ¶": 3148,
      "åħĦå¼Ł": 3149,
      "åĬłåĿ¡": 3150,
      "64": 3151,
      "çģ°": 3152,
      "å¤§åŀĭ": 3153,
      "èĢĮåľ¨": 3154,
      "ä½ĵçļĦ": 3155,
      "æ¦Ĥå¿µ": 3156,
      "ç»Łä¸Ģ": 3157,
      "åıĪç§°": 3158,
      "Ġb": 3159,
      "1996": 3160,
      "å·´é»İ": 3161,
      "çŃĶ": 3162,
      "te": 3163,
      "è¢«è®¤ä¸º": 3164,
      "åĩºäºĨ": 3165,
      "ä¸ĩäºº": 3166,
      "ç´¯": 3167,
      "ç»ĦåĲĪ": 3168,
      "é¥°æ¼Ķ": 3169,
      "å±ķå¼Ģ": 3170,
      "ä¾į": 3171,
      "è§Ĩä¸º": 3172,
      "ta": 3173,
      "çľģçº§": 3174,
      "åįıè®®": 3175,
      "è¯Ħä»·": 3176,
      "èĩªåĬ¨": 3177,
      "è´¾": 3178,
      "å¹´å¤ıåŃ£": 3179,
      "æĺ¯ä¸ŃåĽ½": 3180,
      "æĬĺ": 3181,
      "ä¹ĭå¤ĸ": 3182,
      "åĭĭ": 3183,
      "ä¸ªæľĪ": 3184,
      "æ¸ħæľĿ": 3185,
      "å¤§æ¥¼": 3186,
      "çļĦæĹ¶åĮºä¸º": 3187,
      "éķ¿æľŁ": 3188,
      "æĿ¥æºĲ": 3189,
      "è¾Ĳ": 3190,
      "å¹»": 3191,
      "åİŁæľ¬": 3192,
      "ä¼ļåľ¨": 3193,
      "çĥŁ": 3194,
      "è¦": 3195,
      "å¨ģå»ī": 3196,
      "æĽ¾åľ¨": 3197,
      "ul": 3198,
      "çºµ": 3199,
      "åŁºäºİ": 3200,
      "å®ĥçļĦ": 3201,
      "æĸĩçī©ä¿ĿæĬ¤åįķä½į": 3202,
      "æĸ°åĬłåĿ¡": 3203,
      "çľģçļĦä¸Ģä¸ªå¸Ĥéķĩ": 3204,
      "å§Ĳ": 3205,
      "äºĮå¹´": 3206,
      "åĴĮå¹³": 3207,
      "å¨±ä¹Ĳ": 3208,
      "ub": 3209,
      "çĤİ": 3210,
      "ä¼¸": 3211,
      "èµĦæºĲ": 3212,
      "æīĢåľ¨": 3213,
      "çıį": 3214,
      "é¬": 3215,
      "æ¢°": 3216,
      "ä¸įå°ĳ": 3217,
      "åĬłä¸Ĭ": 3218,
      "è´¤": 3219,
      "ï¼ģ": 3220,
      "éĤĵ": 3221,
      "çļĦåīį": 3222,
      "68": 3223,
      "ç©ºåĨĽ": 3224,
      "éĻķ": 3225,
      "ç»¼åĲĪ": 3226,
      "è§£åĨ³": 3227,
      "å¤ªå¹³æ´ĭ": 3228,
      "æ¡ĥ": 3229,
      "åĶ±çīĩ": 3230,
      "æ¾³å¤§åĪ©äºļ": 3231,
      "èĭ±æł¼åħ°": 3232,
      "åī§æĥħ": 3233,
      "åĿĽ": 3234,
      "æķ¬": 3235,
      "å³¡": 3236,
      "oc": 3237,
      "äº¤æĺĵ": 3238,
      "èĩ³ä»Ĭ": 3239,
      "éĶĭ": 3240,
      "éģ£": 3241,
      "å°ıåŃ¦": 3242,
      "æĹħæ¸¸": 3243,
      "åıĽ": 3244,
      "èĪ°éĺŁ": 3245,
      "åİļ": 3246,
      "Ġ-": 3247,
      "44": 3248,
      "æķĻä¼ļ": 3249,
      "çł´åĿı": 3250,
      "æ±Łèĭı": 3251,
      "è§£æĶ¾åĨĽ": 3252,
      "åı¥": 3253,
      "çļĩå¸Ŀ": 3254,
      "og": 3255,
      "çĬ¹å¤ª": 3256,
      "ç®Ń": 3257,
      "éĿ¢çļĦ": 3258,
      "æĺŁæľŁ": 3259,
      "éĢīæīĭ": 3260,
      "æ²Ł": 3261,
      "èĮ¶": 3262,
      "è¶ħçº§": 3263,
      "è¡Ķ": 3264,
      "æĺ¯ä½įäºİç¾İåĽ½": 3265,
      "èĴĭ": 3266,
      "è¾ī": 3267,
      "èµ´": 3268,
      "æĶ¹ç¼ĸ": 3269,
      "æħĪ": 3270,
      "æĻ®éĢļ": 3271,
      "æīĢå±ŀçļĦ": 3272,
      "å¤§å¤ļæķ°": 3273,
      "ç»§æī¿": 3274,
      "åĩºèº«": 3275,
      "é©¾": 3276,
      "è¿ĲèĲ¥": 3277,
      "1994": 3278,
      "è¿ĽæĶ»": 3279,
      "éĵģéģĵ": 3280,
      "çĨĻ": 3281,
      "æľªèĥ½": 3282,
      "æ²³æµģ": 3283,
      "ä¸»è§Ĵ": 3284,
      "åĢį": 3285,
      "1992": 3286,
      "ï¼Ł": 3287,
      "åħ´å»º": 3288,
      "äºĳåįĹ": 3289,
      "æĸ¯çļĦ": 3290,
      "ap": 3291,
      "åĽ½ç«ĭ": 3292,
      "åĪĿæľŁ": 3293,
      "58": 3294,
      "ç´«": 3295,
      "ä¸ĭè¾ĸä»¥ä¸ĭ": 3296,
      "åħĥç´ł": 3297,
      "è·³": 3298,
      "ç²¾ç¥ŀ": 3299,
      "è¢Ńåĩ»": 3300,
      "ä¸Ģä½į": 3301,
      "ç¥¥": 3302,
      "æĿ¡çº¦": 3303,
      "ST": 3304,
      "æĬķç¥¨": 3305,
      "é«ĺçº§": 3306,
      "è¦Ĩ": 3307,
      "ç¬¬åħŃ": 3308,
      "æĻ¶": 3309,
      "åĲįåįķ": 3310,
      "æ¯ıä¸ª": 3311,
      "è¿Ľä¸ĢæŃ¥": 3312,
      "è¿ĶåĽŀ": 3313,
      "æ¹ĸåįĹ": 3314,
      "åŁºåľ°": 3315,
      "çłĶç©¶æīĢ": 3316,
      "ĠJ": 3317,
      "çº¹": 3318,
      "èİ²": 3319,
      "åį¡å°Ķ": 3320,
      "åİĦ": 3321,
      "éĩįè¦ģçļĦ": 3322,
      "å¥³åĦ¿": 3323,
      "åĲĮæĦı": 3324,
      ")ï¼Į": 3325,
      "ç¼ĸåı·": 3326,
      "æĺ¯æĮĩ": 3327,
      "ä»ĵ": 3328,
      "äººåı£æķ°éĩı": 3329,
      "éĽĨä¸Ń": 3330,
      "åĽ½éĺ²": 3331,
      "ç»´äºļ": 3332,
      "éļıèĳĹ": 3333,
      "ç¡®å®ļ": 3334,
      "æľĭ": 3335,
      "ä¸ĭçļĦä¸Ģä¸ª": 3336,
      "æĹº": 3337,
      "åŁºéĩĳ": 3338,
      "è¿Ľè¡ĮäºĨ": 3339,
      "ç¼ĵ": 3340,
      "1995": 3341,
      "éŀ": 3342,
      "æľºåħ³": 3343,
      "è°±": 3344,
      "Ġm": 3345,
      "èĲ§": 3346,
      "åĨ¯": 3347,
      "å¡ĺ": 3348,
      "78": 3349,
      "çī¹å¾ģ": 3350,
      "åĬĽéĩı": 3351,
      "æĺ¯åĲ¦": 3352,
      "åľ¨ç¾İåĽ½": 3353,
      "åĽ½åĨħ": 3354,
      "å·´è¥¿": 3355,
      "åĮĪ": 3356,
      "å¤©æĸĩ": 3357,
      "è´º": 3358,
      "æĸ¹æ¡Ī": 3359,
      "è¯ķåĽ¾": 3360,
      "äºĨä¸Ģä¸ª": 3361,
      "ĠãĢĤ": 3362,
      "æľºä¼ļ": 3363,
      "æĭīåħĭ": 3364,
      "è§£éĩĬ": 3365,
      "æĬ¥éģĵ": 3366,
      "å¥´": 3367,
      "èĳ£äºĭ": 3368,
      "ä¸Ĭæĺł": 3369,
      "ç§ĺä¹¦": 3370,
      "ri": 3371,
      "ç¨ĭåºı": 3372,
      "æĢ»çĲĨ": 3373,
      "ä¹Ķæ²»": 3374,
      "äº§ä¸ļ": 3375,
      "ä¸įæĸŃ": 3376,
      "ä»°": 3377,
      "è§Ĥä¼Ĺ": 3378,
      "æŃ£åľ¨": 3379,
      "çĮİ": 3380,
      "éĿĸ": 3381,
      "åıĮæĸ¹": 3382,
      "æħ¢": 3383,
      "åŃĿ": 3384,
      "å½Ń": 3385,
      "è¯ģæĺİ": 3386,
      "è¥¿çľģ": 3387,
      "çļĦä¸Ģç§į": 3388,
      "æ½ĺ": 3389,
      "å¤§ä½¿": 3390,
      "76": 3391,
      "å¦»åŃĲ": 3392,
      "ä¹¡éķĩ": 3393,
      "é¦ĸéĥ½": 3394,
      "çĲ³": 3395,
      "åĩ¡": 3396,
      "å§Ķä¼ļ": 3397,
      "ce": 3398,
      "å¥¥æĸ¯": 3399,
      "ç»´æĮģ": 3400,
      "æĦŁæŁĵ": 3401,
      "çļĩå®¶": 3402,
      "æ°ĶåĢĻ": 3403,
      "éĴĪå¯¹": 3404,
      "ä¹ĲåĽ¢": 3405,
      "çķª": 3406,
      "å¥½çļĦ": 3407,
      "æĸ¯åŁº": 3408,
      "æŁ´": 3409,
      "ï¼ĮãĢĮ": 3410,
      "æī¹åĩĨ": 3411,
      "æľīæĹ¶": 3412,
      "åħŃå¹´": 3413,
      "åĽ½åĬ¡": 3414,
      "åľ¨è¿Ļ": 3415,
      "å°ĳå¹´": 3416,
      "æ³³": 3417,
      "å¿Ĩ": 3418,
      "åħ¬åħĥ": 3419,
      "ä¼ı": 3420,
      "æ°§åĮĸ": 3421,
      "æĴĴ": 3422,
      "ä¸´æĹ¶": 3423,
      "ç¨ĭåº¦": 3424,
      "æĶ¶åħ¥": 3425,
      "li": 3426,
      "æĴŀ": 3427,
      "1950": 3428,
      "å¹´è½»": 3429,
      "å¹´è¢«": 3430,
      "å¾·éĩĮ": 3431,
      "å°ıç»Ħ": 3432,
      "è®®éĻ¢": 3433,
      "ç£ģ": 3434,
      "å°ĸ": 3435,
      "åĪĢ": 3436,
      "æİª": 3437,
      "æ®ĸæ°ĳ": 3438,
      "é£İæļ´": 3439,
      "99": 3440,
      "å¿«éĢŁ": 3441,
      "éĥ½ä¼ļ": 3442,
      "äºĮä¸ĸ": 3443,
      "éļ¶å±ŀäºİ": 3444,
      "1993": 3445,
      "ãĢĢ": 3446,
      "çĨŁ": 3447,
      "æľīäºĽ": 3448,
      "å±±èĦī": 3449,
      "çĵľ": 3450,
      "æĢ»éĥ¨": 3451,
      "ä»·åĢ¼": 3452,
      "åĽ½æ°ĳåħļ": 3453,
      "300": 3454,
      "ç½ķ": 3455,
      "æľīæķĪ": 3456,
      "é©¬åħĭ": 3457,
      "èĳĹåĲį": 3458,
      "é¥®": 3459,
      "æ§": 3460,
      "æĹ¥åĨĽ": 3461,
      "çİ°æĹ¶": 3462,
      "å¸¸è§ģ": 3463,
      "ä»¥åĲİ": 3464,
      "å¹´å¼Ģå§ĭ": 3465,
      "çļĦå¸Ĥéķĩ": 3466,
      "è¶£": 3467,
      "æĢĿæĥ³": 3468,
      "åįĬå²Ľ": 3469,
      "ĠV": 3470,
      "çŀ": 3471,
      "77": 3472,
      "ä¸ŃåĽ½äººæ°ĳ": 3473,
      "åį¢çĵ¦": 3474,
      "æ¯ıå¹³æĸ¹åħ¬éĩĮ": 3475,
      "è®¨è®º": 3476,
      "åıĸæ¶Ī": 3477,
      "èµł": 3478,
      "ä»İäºĭ": 3479,
      "åĲĪçī©": 3480,
      "äººåľ¨": 3481,
      "èĭĹ": 3482,
      "æ³ķåħ°": 3483,
      "æŁ³": 3484,
      "éĩįå»º": 3485,
      "è´¯": 3486,
      "ers": 3487,
      "ä½įäºİæ³ķåĽ½": 3488,
      "å°ĶçļĦ": 3489,
      "é¬¼": 3490,
      "åĨ²çªģ": 3491,
      "av": 3492,
      "56": 3493,
      "ä¸įåĨį": 3494,
      "åİ¿çļĦä¸Ģä¸ª": 3495,
      "åĮ»çĸĹ": 3496,
      "1991": 3497,
      "ä¸»é¢ĺ": 3498,
      "ä»¥èī²": 3499,
      "ãĢģãĢģ": 3500,
      "ä¸ĭåįĪ": 3501,
      "æĹłçº¿": 3502,
      "éĤĢè¯·": 3503,
      "çĩķ": 3504,
      "åħ¬æ°ĳ": 3505,
      "åĬĽçļĦ": 3506,
      "å¦Ĥä¸ĭ": 3507,
      "è¿ħ": 3508,
      "42": 3509,
      "éĿŀæ´²": 3510,
      "åį«çĶŁ": 3511,
      "ä»¥èī²åĪĹ": 3512,
      "éļıçĿĢ": 3513,
      "èĳĽ": 3514,
      "UTC": 3515,
      "è´¢æĶ¿": 3516,
      "ä¸»æ¼Ķ": 3517,
      "æī¿è®¤": 3518,
      "ä¿ĿçķĻ": 3519,
      "æľªæĿ¥": 3520,
      "è¥¿æ´ĭ": 3521,
      "çİĭæľĿ": 3522,
      "é¹¿": 3523,
      "ov": 3524,
      "åĩ½æķ°": 3525,
      "Ġw": 3526,
      "ï¼ī.": 3527,
      "è©": 3528,
      "åİ¿çļĦ": 3529,
      "ä¸ĭè¾ĸä»¥ä¸ĭåľ°åĮº": 3530,
      "æĻ¨": 3531,
      "éģĤ": 3532,
      "æ³Ĭ": 3533,
      "åħģè®¸": 3534,
      "åĽ¾ä¹¦é¦Ĩ": 3535,
      "åģľæŃ¢": 3536,
      "å»ºæĪĲ": 3537,
      "éĥ½æľī": 3538,
      "æµ·å²¸": 3539,
      "ç»ĵå©ļ": 3540,
      "ç¼ħ": 3541,
      "åĮĸçļĦ": 3542,
      "æĺ¯ä¸ĭè¾ĸçļĦä¸Ģä¸ª": 3543,
      "åºĶè¯¥": 3544,
      "åĿİ": 3545,
      "åĭ¤": 3546,
      "1970": 3547,
      "å¹¶æ²¡æľī": 3548,
      "æŃ¦è£ħ": 3549,
      "é«ĺçŃī": 3550,
      "è·¯æĺĵ": 3551,
      "ãĢĬãĢĭ": 3552,
      "æĬķåħ¥": 3553,
      "çļĦæķ°æį®": 3554,
      "èĭ¦": 3555,
      "æķĻåĮº": 3556,
      "è©¹": 3557,
      "çĶ¨æĪ·": 3558,
      "æĸĩä»¶": 3559,
      "åĩŃ": 3560,
      "èĥľåĪ©": 3561,
      "æĿĲæĸĻ": 3562,
      "é«ĺä¸Ń": 3563,
      "å°Ķçī¹": 3564,
      "åĩĮ": 3565,
      "59": 3566,
      "å±ı": 3567,
      "ä¸Ģä¸ĸ": 3568,
      "çĨĬ": 3569,
      "Ġin": 3570,
      "1988": 3571,
      "1945": 3572,
      "æĸ°å¢ŀ": 3573,
      "ä½¿çĶ¨çļĦ": 3574,
      "éĶĢåĶ®": 3575,
      "ard": 3576,
      "æµĭè¯ķ": 3577,
      "åįģåĪĨ": 3578,
      "ut": 3579,
      "æĶ¶å½ķ": 3580,
      "ä¸ĸçķĮå¤§æĪĺ": 3581,
      "è®¿éĹ®": 3582,
      "ç»ĵåĲĪ": 3583,
      "åı¯è¾¾": 3584,
      "å¸Ĥéķ¿": 3585,
      "1949": 3586,
      "æĸ¯åħĭ": 3587,
      "ä¸ºæ³ķåĽ½": 3588,
      "åĹ": 3589,
      "èĳĹä½ľ": 3590,
      "èĢĥèĻĳ": 3591,
      "çķĶ": 3592,
      "è°ĥæķ´": 3593,
      "çĶ¨çļĦ": 3594,
      "æ¢¯": 3595,
      "çĶ¨æĿ¥": 3596,
      "èĩ³å°ĳ": 3597,
      "äººæ°ĳæĶ¿åºľ": 3598,
      "åıªæĺ¯": 3599,
      "éĢīåĮº": 3600,
      "ä¸ŃåĽ½åħ±äº§åħļ": 3601,
      "æ£ĭ": 3602,
      "èµ·æĿ¥": 3603,
      "æħķ": 3604,
      "çİĭåĽ½": 3605,
      "äººæķ°": 3606,
      "åŃĲçļĦ": 3607,
      "è§Ĥå¯Ł": 3608,
      "ï¼ļ\"": 3609,
      "æ¡Ĥ": 3610,
      "ä½ĽæķĻ": 3611,
      "å®ªæ³ķ": 3612,
      "åľ°ä½į": 3613,
      "æĺ¯ç¾İåĽ½": 3614,
      "æĲľ": 3615,
      "åĲ¨": 3616,
      "æĹ§å¸Ĥéķĩ": 3617,
      "âĢĿãĢģ": 3618,
      "æ¯ķä¸ļäºİ": 3619,
      "è´¨éĩı": 3620,
      "è¯ļ": 3621,
      "éģĹåĿĢ": 3622,
      "66": 3623,
      "çĶµèĦĳ": 3624,
      "æİ¥è¿ĳ": 3625,
      "ç§Ĵ": 3626,
      "II": 3627,
      "åĢ¾": 3628,
      "åĪ°è¾¾": 3629,
      "ä¸įåı¯": 3630,
      "æĪĸæĺ¯": 3631,
      "éĩĳå±ŀ": 3632,
      "èĩªæ²»åĮº": 3633,
      "ä¿Ĭ": 3634,
      "å®īæİĴ": 3635,
      "çĶ³è¯·": 3636,
      "éĶģ": 3637,
      "åīįçļĦ": 3638,
      "æ¯ĶåĪ©": 3639,
      "èī²çļĦ": 3640,
      "å¼ķåıĳ": 3641,
      "è¯´æ³ķ": 3642,
      "éĺ¿æĭīä¼¯": 3643,
      "æĹ¶ä»»": 3644,
      "èĥ¶": 3645,
      "èŀº": 3646,
      "æĸ¹çļĦ": 3647,
      "éĻĨåľ°": 3648,
      "æĹ¥çļĦ": 3649,
      "Ġand": 3650,
      "çĽ®çļĦ": 3651,
      "ç¼ĸè¾ĳ": 3652,
      "äºĭä¸ļ": 3653,
      "çŁ¥éģĵ": 3654,
      "1960": 3655,
      "å¹´ç¾İåĽ½äººåı£æĻ®æŁ¥": 3656,
      "åħ¬åĪĨ": 3657,
      "æĥĬ": 3658,
      "å¸ĤåĮº": 3659,
      "åĽłèĢĮ": 3660,
      "éĺŁçļĦ": 3661,
      "èģĶåĲĪåĽ½": 3662,
      "æĺİæĺ¾": 3663,
      "åĲĥ": 3664,
      "è°ĵ": 3665,
      "Ġå¹´": 3666,
      "ä¸Ģå¸¦": 3667,
      "éĩĮçļĦ": 3668,
      "éī": 3669,
      "åľ°åĪ©": 3670,
      "ind": 3671,
      "ç¬¬ä¸ĥ": 3672,
      "æµ®": 3673,
      "å°±è¯»": 3674,
      "è½°": 3675,
      "ä¼¯çī¹": 3676,
      "äº¤æµģ": 3677,
      "éļ§": 3678,
      "ç§»åĬ¨": 3679,
      "åıĺæĪĲ": 3680,
      "éĢĿä¸ĸ": 3681,
      "æ°Ķè±¡": 3682,
      "ak": 3683,
      "åĪĽç«ĭ": 3684,
      "æ°ĳä¼Ĺ": 3685,
      "ç¢³": 3686,
      "ç½ļ": 3687,
      "æĶ¯æı´": 3688,
      "ä¹ı": 3689,
      "éĤ®æĶ¿ç¼ĸçłģä¸º": 3690,
      "ç²Ĵ": 3691,
      "ä»ĸæĽ¾": 3692,
      "43": 3693,
      "æŃ¤æĹ¶": 3694,
      "æĬļ": 3695,
      "çĶµåı°": 3696,
      "å£«åħµ": 3697,
      "åħ½": 3698,
      "çĺ": 3699,
      "ãĢģï¼Ī": 3700,
      "åĨįåº¦": 3701,
      "AT": 3702,
      "SEE": 3703,
      "The": 3704,
      "çĽ´èĩ³": 3705,
      "äººåı£æķ°éĩıä¸ºäºº": 3706,
      "ç±³å°Ķ": 3707,
      "å¡ĳ": 3708,
      "=\"": 3709,
      "ç¥ĸçĪ¶": 3710,
      "çī©è´¨": 3711,
      "æł¸å¿ĥ": 3712,
      "å¤§èĩ£": 3713,
      "çļĦæĹ¶åĢĻ": 3714,
      "æĿŃ": 3715,
      "å¸ĤçļĦ": 3716,
      "ï¼ļãĢĤ": 3717,
      "æĮĤ": 3718,
      "å¤ĸçļĦ": 3719,
      "æİ¥å£¤çļĦå¸Ĥéķĩ": 3720,
      "æĪĺåĲİ": 3721,
      "57": 3722,
      "ç¡ķ": 3723,
      "æĢª": 3724,
      "æ³¥": 3725,
      "è¡¨è¾¾": 3726,
      "è¿ĩç¨ĭä¸Ń": 3727,
      "èĥģ": 3728,
      "éĩįçĤ¹": 3729,
      "åģ¥åº·": 3730,
      "è¯¦": 3731,
      "æİī": 3732,
      "èħ¹": 3733,
      "1989": 3734,
      "åĿĬ": 3735,
      "çĶŁéķ¿": 3736,
      "çĹĽ": 3737,
      "ang": 3738,
      "èĬ³": 3739,
      "å¥¥åľ°åĪ©": 3740,
      "å¨ģå°Ķ": 3741,
      "é¡µ": 3742,
      "èĹ©": 3743,
      "æĿ¥è¯´": 3744,
      "åĬ±": 3745,
      "çĲĥåľº": 3746,
      "ie": 3747,
      "åĳ½ä»¤": 3748,
      "ä¸ľè¥¿": 3749,
      "å°¤åħ¶": 3750,
      "åĬŀåħ¬å®¤": 3751,
      "æĴ°": 3752,
      "è¡ĮæĶ¿åįķä½į": 3753,
      "å°ĳæķ°": 3754,
      "çİ°åľº": 3755,
      "æĿī": 3756,
      "æĢ»çĿ£": 3757,
      "æ¨¡åŀĭ": 3758,
      "å¦ĤæŃ¤": 3759,
      "çĽĹ": 3760,
      "ç¾½æ¯Ľ": 3761,
      "åħ³æ³¨": 3762,
      "äººåı£å¯Ĩåº¦æ¯ıå¹³æĸ¹åħ¬éĩĮ": 3763,
      "åĲĦåľ°": 3764,
      "æľĭåıĭ": 3765,
      "éī´": 3766,
      "88": 3767,
      "ud": 3768,
      "INSEE": 3769,
      "é«ĺéĽĦ": 3770,
      "41": 3771,
      "å±¿": 3772,
      "å°¼æĸ¯": 3773,
      "å±¯": 3774,
      "ãĢı": 3775,
      "åĮ»åŃ¦": 3776,
      "69": 3777,
      "ãĢİ": 3778,
      "èĬĿ": 3779,
      "çĳŀåħ¸": 3780,
      "åįģå¹´": 3781,
      "æĶ¿åħļ": 3782,
      "æ²³åĮĹ": 3783,
      "è¯¾ç¨ĭ": 3784,
      "ä¸ĥå¹´": 3785,
      "èĤĥ": 3786,
      "nd": 3787,
      "åĪĽåĬŀ": 3788,
      "å®īå¾·": 3789,
      "æľ¬ç«Ļ": 3790,
      "èĳ¡èĲĦçīĻ": 3791,
      "åħ¥ä¾µ": 3792,
      "ä¼Ĭæĸ¯åħ°": 3793,
      "åĩºåı£": 3794,
      "åİ¿äºº": 3795,
      "å¢¨è¥¿": 3796,
      "æ±¡": 3797,
      "ç§»æ°ĳ": 3798,
      "ä¹³": 3799,
      "åºĬ": 3800,
      "ä¸Ńå±±": 3801,
      "ç§ĳçļĦ": 3802,
      "å´İ": 3803,
      "æĸĩç«ł": 3804,
      "å¤ıä»¤æĹ¶": 3805,
      "æī°": 3806,
      "ç¦Ħ": 3807,
      "å¸Ĥéķĩç¼ĸçłģä¸º": 3808,
      "ä¸ºä¸Ģ": 3809,
      "INSEEå¸Ĥéķĩç¼ĸçłģä¸º": 3810,
      "æıĲé«ĺ": 3811,
      "èŃ¦æĸ¹": 3812,
      "ä¼ļçļĦ": 3813,
      "çĬ¶åĨµ": 3814,
      "Âł": 3815,
      "ab": 3816,
      "æģĴæĺŁ": 3817,
      "åĴ¸": 3818,
      "çļĦå°ı": 3819,
      "ä¸ºæ¯ı": 3820,
      "çº§è¡ĮæĶ¿åįķä½į": 3821,
      "åľ³": 3822,
      "æ£®æŀĹ": 3823,
      "æĹ¶çļĦäººåı£æķ°éĩıä¸ºäºº": 3824,
      "äºİæĹ¶çļĦäººåı£æķ°éĩıä¸ºäºº": 3825,
      "çº¬": 3826,
      "åĭĥ": 3827,
      "79": 3828,
      "æŀĦæĪĲ": 3829,
      "éĢīåĮºä¸º": 3830,
      "åĽ¢éĺŁ": 3831,
      "åį¿": 3832,
      "éļ§éģĵ": 3833,
      "æĭĵ": 3834,
      "æĴŃæĶ¾": 3835,
      "é«ĺçļĦ": 3836,
      "æĺ¯ä¸ĢåĲį": 3837,
      "æł¡éķ¿": 3838,
      "æĪĸæĹ§å¸Ĥéķĩ": 3839,
      "è¯¥çľģä»½": 3840,
      "ç¨³å®ļ": 3841,
      "å¤±åİ»": 3842,
      "ä¸¤ç§į": 3843,
      "æıĲåĲį": 3844,
      "æīĢå±ŀçļĦçľģçº§": 3845,
      "æīĢå±ŀçļĦçľģçº§éĢīåĮºä¸º": 3846,
      "æľĪèĩ³": 3847,
      "ä¹¡éķĩçº§è¡ĮæĶ¿åįķä½į": 3848,
      "çĽ¸ä¼¼": 3849,
      "ãĢĭï¼Īï¼ī": 3850,
      "éĦ": 3851,
      "çİ°è±¡": 3852,
      "æıĴ": 3853,
      "è¯ŀ": 3854,
      "çº·": 3855,
      "çļĦçłĶç©¶": 3856,
      "1984": 3857,
      "å§Ĩæĸ¯": 3858,
      "æ¶Īæģ¯": 3859,
      "åŃ¦æľ¯": 3860,
      "ç¾Ĭ": 3861,
      "åĢĻéĢī": 3862,
      "åİĨåı²ä¸Ĭ": 3863,
      "æħ§": 3864,
      "è¯¥çľģä»½ä¸ºæ³ķåĽ½": 3865,
      "ç¦ģæŃ¢": 3866,
      "èģĮåĬ¡": 3867,
      "åĳ¨è¾¹": 3868,
      "SA": 3869,
      "å·¥åİĤ": 3870,
      "ä»²": 3871,
      "åıªèĥ½": 3872,
      "æķĪåĬĽ": 3873,
      "å¢¨è¥¿åĵ¥": 3874,
      "å¼ĺ": 3875,
      "å®¢è¿Ĳ": 3876,
      "çĳŀå£«": 3877,
      "åį«æĺŁ": 3878,
      "æķ°åŃĹ": 3879,
      "éĩįåºĨ": 3880,
      "çĶ¸": 3881,
      "ä¸Ģåº¦": 3882,
      "éĺħ": 3883,
      "Ġformula": 3884,
      "æĵįä½ľ": 3885,
      "æľºæ¢°": 3886,
      "èĽĩ": 3887,
      "å¹¿åĳĬ": 3888,
      "çĮ«": 3889,
      "åĲĮä¸Ģ": 3890,
      "åı¯èĥ½æĺ¯": 3891,
      "èĢĮæĺ¯": 3892,
      ")ãĢĤ": 3893,
      "ç¥Ŀ": 3894,
      "å§ĭå»ºäºİ": 3895,
      "åįĹåĮĹ": 3896,
      "åĬ¨åĬĽ": 3897,
      "ä¸įå¾Ĺ": 3898,
      "ä¸§": 3899,
      "è·ĥ": 3900,
      "åĪĹä¸º": 3901,
      "æĽ´åĲįä¸º": 3902,
      "çľĭåĪ°": 3903,
      "å²³": 3904,
      "Ġï¼Į": 3905,
      "çĶŁåĳ½": 3906,
      "æĺ¯ä¸ĭè¾ĸçļĦä¸Ģä¸ªä¹¡éķĩçº§è¡ĮæĶ¿åįķä½į": 3907,
      "åįĹæŀģ": 3908,
      "å¹¶æľª": 3909,
      "å£³": 3910,
      "ne": 3911,
      "èĽĭçĻ½": 3912,
      "å»ºåĪ¶": 3913,
      "NA": 3914,
      "ï½": 3915,
      "æĬµè¾¾": 3916,
      "St": 3917,
      "çĮª": 3918,
      "åĸĢ": 3919,
      "çļĦé¦ĸ": 3920,
      "67": 3921,
      "æĻĵ": 3922,
      "51": 3923,
      "ä¹Łåľ¨": 3924,
      "ä¿¡åı·": 3925,
      "ç¨ĭå¼ı": 3926,
      "éģ¿åħį": 3927,
      "å½»": 3928,
      "1985": 3929,
      "ä¸įæĺİ": 3930,
      "è¹": 3931,
      "éħĴåºĹ": 3932,
      "å°Ķåħ°": 3933,
      "52": 3934,
      "æŁĲäºĽ": 3935,
      "å°ļæľª": 3936,
      "äººå¤§": 3937,
      "å¤±è´¥": 3938,
      "ĠSt": 3939,
      "åľ°éľĩ": 3940,
      "æ°´å¹³": 3941,
      "æĸĳ": 3942,
      "æĹ¦": 3943,
      "çī¹æ®Ĭ": 3944,
      "åįĵ": 3945,
      "åħ«å¹´": 3946,
      "æĺ¯ä¸Ģä½į": 3947,
      "äºļåİĨ": 3948,
      "åı°åįĹ": 3949,
      "æ³¨æĦı": 3950,
      "å¾ª": 3951,
      "åı¬å¼Ģ": 3952,
      "èĩªè¡Į": 3953,
      "è¯¢": 3954,
      "æįĲ": 3955,
      "çļĦéĤ®æĶ¿ç¼ĸçłģä¸º": 3956,
      "å½ĵæĹ¶çļĦ": 3957,
      "å±Ĭåħ¨åĽ½": 3958,
      "æĶ¿æĿĥ": 3959,
      "ç¿»è¯ĳ": 3960,
      "Ġf": 3961,
      "å¾Ĺä»¥": 3962,
      "æĴ¤éĶĢ": 3963,
      "æĵİ": 3964,
      "æľīäºº": 3965,
      "ä¸ĢåĲĮ": 3966,
      "åŀĴ": 3967,
      "èº«ä½ĵ": 3968,
      "çļĦæĸ¹å¼ı": 3969,
      "æĻ®éģį": 3970,
      "åıĳçĶµ": 3971,
      "èģĶç³»": 3972,
      "å½¼å¾Ĺ": 3973,
      "æ´Ĺ": 3974,
      "æıĲåįĩ": 3975,
      "çļĦæĦı": 3976,
      "ä»İèĢĮ": 3977,
      "åŃ©åŃĲ": 3978,
      "åħ¥åı£": 3979,
      "ä½ĵç³»": 3980,
      "âĢĿãĢģâĢľ": 3981,
      "ä»ªå¼ı": 3982,
      "æĲ¬": 3983,
      "å¸Ĥæ°ĳ": 3984,
      "åįĳ": 3985,
      "çīł": 3986,
      "ice": 3987,
      "åħ¨éķ¿": 3988,
      "é¼ł": 3989,
      "ç»´å¥ĩ": 3990,
      "è¢ĸ": 3991,
      "1986": 3992,
      "åŁĥå°Ķ": 3993,
      "å®ı": 3994,
      "æĮĳæĪĺ": 3995,
      "èĪĴ": 3996,
      "ç¢į": 3997,
      "è¥¿æĸ¹": 3998,
      "æ²³çķĶ": 3999,
      "ï¼Īï¼Ľ": 4000,
      "è¡¨æĺİ": 4001,
      "åĽĽä¸ª": 4002,
      "ä»ĸæĺ¯": 4003,
      "ä¸įè¶³": 4004,
      "å¹´å¤ıåŃ£å¥¥æŀĹåĮ¹åħĭè¿ĲåĬ¨ä¼ļ": 4005,
      "å¯¹æīĭ": 4006,
      "çī¹çļĦ": 4007,
      "å¨ģèĥģ": 4008,
      "èĳĹåĲįçļĦ": 4009,
      "å¸ĥé²ģ": 4010,
      "æĹ¨": 4011,
      "æĪĴ": 4012,
      "åĽ½åĬ¡éĻ¢": 4013,
      "å®Ļ": 4014,
      "62": 4015,
      "æĪĲä¸ºäºĨ": 4016,
      "ä»ĭç»į": 4017,
      "æ¡Īä»¶": 4018,
      "å½ĵå±Ģ": 4019,
      "æĪĲç«ĭäºİ": 4020,
      "é¸¡": 4021,
      "äºĭå®ŀ": 4022,
      "å¹³æĸ¹ç±³": 4023,
      "æĹ¢": 4024,
      "æķ°åŃ¦": 4025,
      "54": 4026,
      "ä¸²": 4027,
      "éľ¸": 4028,
      "åıĪåĲį": 4029,
      "ine": 4030,
      "åĴĮåħ¶ä»ĸ": 4031,
      "çĶµåĬĽ": 4032,
      "ĠçļĦ": 4033,
      "éĥĬ": 4034,
      "çļĦä¸Ģåº§": 4035,
      "æ°ĳä¸»åħļ": 4036,
      "ĠU": 4037,
      "çļĦæµ·": 4038,
      "åĪĽéĢł": 4039,
      "1987": 4040,
      "åħ¬ä¼Ĺ": 4041,
      "æ¬¢è¿İ": 4042,
      "äºŃ": 4043,
      "æĺ¯æĹ¥æľ¬": 4044,
      "éĩĳèŀį": 4045,
      "æĬ¥å¯¼": 4046,
      "æĦŁåĪ°": 4047,
      "ä¼°è®¡": 4048,
      "åıĳèµ·": 4049,
      "ç¡®è¯Ĭ": 4050,
      "å¤§è¥¿æ´ĭ": 4051,
      "å¤ĸåĽ½": 4052,
      "å¼ķæĵİ": 4053,
      "ob": 4054,
      "çļĦåİŁ": 4055,
      "çİĦ": 4056,
      "æĹ©å¹´": 4057,
      "çĦ¦": 4058,
      "å¯Ħ": 4059,
      "èĦĤ": 4060,
      "éĩĩåıĸ": 4061,
      "çİ»": 4062,
      "BA": 4063,
      "53": 4064,
      "æķĻç»ĥ": 4065,
      "åī©": 4066,
      "ok": 4067,
      "ç®±": 4068,
      "tw": 4069,
      "è±Ĩ": 4070,
      "æ¹ĸåĮĹ": 4071,
      "å¤§éģĵ": 4072,
      "èµĦè®¯": 4073,
      "éĵ¾": 4074,
      "å®īå¾½": 4075,
      "çļĦç¬¬ä¸Ģ": 4076,
      "èı²å¾ĭ": 4077,
      "TV": 4078,
      "èı²å¾ĭå®¾": 4079,
      "åĩºæĪĺ": 4080,
      "ä¹Ŀå¹´": 4081,
      "å¥ĳ": 4082,
      "ä¹¾": 4083,
      "çĸı": 4084,
      "ight": 4085,
      "å¹´åºķ": 4086,
      "åħ¬ä¸»": 4087,
      "çĪ±å°Ķåħ°": 4088,
      "åŃĹæ¯į": 4089,
      "æĭīå¤«": 4090,
      "ç»ĻäºĪ": 4091,
      "æ°¢": 4092,
      "èĲ¥è¿Ĳ": 4093,
      "ä¹Łè¢«": 4094,
      "å°ī": 4095,
      "400": 4096,
      "Ch": 4097,
      "æĿĥåĬĽ": 4098,
      "ä¹Łä¼ļ": 4099,
      "ä»¿": 4100,
      "åħ¶å®ĥ": 4101,
      "åĵĪå°Ķ": 4102,
      "è´Ńä¹°": 4103,
      "åĨĽçļĦ": 4104,
      "åĲ¯çĶ¨": 4105,
      "å¹´åĴĮ": 4106,
      "åħ¥éĢī": 4107,
      "åĲİèĢħ": 4108,
      "tion": 4109,
      "æĹħå®¢": 4110,
      "éĩĮäºļ": 4111,
      "çĭ®": 4112,
      "æ¾³æ´²": 4113,
      "åĨ¬åŃ£": 4114,
      "ç½ĳè·¯": 4115,
      "è§ĦåĪĻ": 4116,
      "æľĢåĲİä¸Ģ": 4117,
      "è¡°": 4118,
      "æŀ¢": 4119,
      "å¥ĸé¡¹": 4120,
      "åĪ¸": 4121,
      "ä¹ĺå®¢": 4122,
      "æĸ¯å¡Ķ": 4123,
      "çĲĨäºĭ": 4124,
      "æĤ¬": 4125,
      "å±ŀä¸ĭçļĦä¸Ģä¸ª": 4126,
      "çİ°ä»»": 4127,
      "çĹħä¾ĭ": 4128,
      "æĶ¾å¼ĥ": 4129,
      "æĸ°çĸĨ": 4130,
      "å·¥äºº": 4131,
      "150": 4132,
      "åŃ¦ä¼ļ": 4133,
      "åı°ä¸Ń": 4134,
      "ç²¹": 4135,
      "èµĲ": 4136,
      "åıĹä¼¤": 4137,
      "èĢĢ": 4138,
      "æº¶": 4139,
      "ä»Ģä¹Ī": 4140,
      "æŃ§": 4141,
      "72": 4142,
      "ä¹Ŀé¾Ļ": 4143,
      "æī®": 4144,
      "åĮĹç¾İ": 4145,
      "çĸ«æĥħ": 4146,
      "æ³°åĽ½": 4147,
      "èį¯çī©": 4148,
      "æĭīä¸ģ": 4149,
      "å®īè£ħ": 4150,
      "æµģåŁŁ": 4151,
      "ä½ĵéķ¿": 4152,
      "æĢ§è´¨": 4153,
      "èĮĤ": 4154,
      "åıĳåĩº": 4155,
      "å¹¶éĿŀ": 4156,
      "çŁ¥è¯Ĩ": 4157,
      "åĸľæ¬¢": 4158,
      "èĤ¡ä»½": 4159,
      "ç¬ĳ": 4160,
      "åħ¶ä½Ļ": 4161,
      "çł²": 4162,
      "å´Ķ": 4163,
      "ä¾¦": 4164,
      "æľ¬èº«": 4165,
      "è¿ħéĢŁ": 4166,
      "è¾¾æĪĲ": 4167,
      "æİ¥è§¦": 4168,
      "éĩĳçīĮ": 4169,
      "ä¼Ļ": 4170,
      "ä¼łæĴŃ": 4171,
      "å£®": 4172,
      "åĵģçīĮ": 4173,
      "åı°é£İ": 4174,
      "åħīç»ª": 4175,
      "æľ¬åľŁ": 4176,
      "ä¸Ńåħ±ä¸Ńå¤®": 4177,
      "æĸĩåŃĹ": 4178,
      "äº¦æľī": 4179,
      "98": 4180,
      "æ·±åľ³": 4181,
      "ç«ŀäºī": 4182,
      "è¾ĵåħ¥": 4183,
      "çļĦç¬¬": 4184,
      "é©¬å°Ķ": 4185,
      "61": 4186,
      "è¡į": 4187,
      "ell": 4188,
      "1982": 4189,
      "è¢ģ": 4190,
      "å¼ºçĥĪ": 4191,
      "ä¹ĭä¸ĭ": 4192,
      "ä¸ĩåħĥ": 4193,
      "åŁºçĿ£æķĻ": 4194,
      "æ¸Ķ": 4195,
      "è¿Ļæ¬¡": 4196,
      "æ¬§åħĥ": 4197,
      "åŁĥåıĬ": 4198,
      "æ¹¿": 4199,
      "ç»ĵæĿŁåĲİ": 4200,
      "è¾¹çķĮ": 4201,
      "æĦıä¸º": 4202,
      "æµĵ": 4203,
      "ç¼ºä¹ı": 4204,
      "ç¿ģ": 4205,
      "è§ĤçĤ¹": 4206,
      "æµ·åŁŁ": 4207,
      "åľŁèĢ³": 4208,
      "åıĶ": 4209,
      "å®¹æĺĵ": 4210,
      "åĮ»çĶŁ": 4211,
      "åħ±æľīäººåı£": 4212,
      "çļĦåľ°æĸ¹": 4213,
      "å½°": 4214,
      "ï¼Ī\"": 4215,
      "ä¸ĩç¾İåħĥ": 4216,
      "æ¬²": 4217,
      "èĢĮè¢«": 4218,
      "ist": 4219,
      "æµħ": 4220,
      "åľŁèĢ³åħ¶": 4221,
      "åħĭéĩĮ": 4222,
      "éĢĴ": 4223,
      "è´¡çĮ®": 4224,
      "æĿĳåºĦ": 4225,
      "ä¼łè¯´": 4226,
      "å¿ĥçĲĨ": 4227,
      "äººåĴĮ": 4228,
      "èį£èªī": 4229,
      "1983": 4230,
      "æİªæĸ½": 4231,
      "åĩºçİ°åľ¨": 4232,
      "çīµ": 4233,
      "ä¸ľæĸ¹": 4234,
      "è¾©": 4235,
      "å¾ĭå¸Ī": 4236,
      "å¹³éĿ¢": 4237,
      "æµ©": 4238,
      "å¢ŀéķ¿": 4239,
      "åĲ¸å¼ķ": 4240,
      "è¥¿èĹı": 4241,
      "å²Ĺ": 4242,
      "æŃ¦æ±ī": 4243,
      "ä¼ĬæľĹ": 4244,
      "è´ŀ": 4245,
      "åįģä¸Ģ": 4246,
      "å¤ºå¾Ĺ": 4247,
      "åıĤèĢĥ": 4248,
      "ä¸ĵå®¶": 4249,
      "è´´": 4250,
      "å»¶ä¼¸": 4251,
      "åĬłåĪ©": 4252,
      "ä¸»å¼ł": 4253,
      "å¤įæĿĤ": 4254,
      "CD": 4255,
      "æĽ´å¤ļ": 4256,
      "å®Įæķ´": 4257,
      "æĦıè¯Ĩ": 4258,
      "ï½ŀ": 4259,
      "ç²¤": 4260,
      "äºĭæķħ": 4261,
      "æ¼ĶåĶ±ä¼ļ": 4262,
      "å·§": 4263,
      "çĹĩçĬ¶": 4264,
      "åĮĪçīĻ": 4265,
      "æ¯ĶèµĽä¸Ń": 4266,
      "æī§å¯¼": 4267,
      "åİĺ": 4268,
      "æİĪäºĪ": 4269,
      "çİĽä¸½": 4270,
      "ä¿¡ä»°": 4271,
      "ç§¯æŀģ": 4272,
      "ess": 4273,
      "åĩºéģĵ": 4274,
      "åĮĪçīĻåĪ©": 4275,
      "èĲ¨åħĭ": 4276,
      "æĬ½": 4277,
      "63": 4278,
      "å®ŀéĻħä¸Ĭ": 4279,
      "åħ¨éĿ¢": 4280,
      "çĽ¾": 4281,
      "å¹¶å°Ĩ": 4282,
      "èĭ±éĽĦ": 4283,
      "71": 4284,
      "åľ¨ä¸ŃåĽ½": 4285,
      "å¸ĥæĭī": 4286,
      "æĿĥåĪ©": 4287,
      "æ»©": 4288,
      "åįľ": 4289,
      "åħ¬åı¸çļĦ": 4290,
      "è¡¨éĿ¢": 4291,
      "æĮīçħ§": 4292,
      "æłĩå¿Ĺ": 4293,
      "å°Ŀ": 4294,
      "èĢĮæĪĲ": 4295,
      "çŁ¥åİ¿": 4296,
      "åĸ·": 4297,
      "åŁºåĽł": 4298,
      "å¦Ĥä½ķ": 4299,
      "çİĩé¢Ĩ": 4300,
      "è¸ª": 4301,
      "æĿĨ": 4302,
      "äºļåİĨå±±": 4303,
      "æ¶īåıĬ": 4304,
      "çĸ¾çĹħ": 4305,
      "ä¸ĸçķĮæĿ¯": 4306,
      "åĨħéĺģ": 4307,
      "æłĩä¸º": 4308,
      "éĴ¦": 4309,
      "çŃ¾ç½²": 4310,
      "åĽłç´ł": 4311,
      "äººå·¥": 4312,
      "ç¾İæľ¯": 4313,
      "åĲİæľŁ": 4314,
      "çľģåĴĮ": 4315,
      "è£ħçĶ²": 4316,
      "ä½ľèĢħ": 4317,
      "up": 4318,
      "åı¯èĥ½ä¼ļ": 4319,
      "Ġ2": 4320,
      "æŃĩ": 4321,
      "é²į": 4322,
      "çļĦé«ĺ": 4323,
      "éĺŁä¼į": 4324,
      "æĭ³": 4325,
      "å°Ĩä¼ļ": 4326,
      "180": 4327,
      "çªĹ": 4328,
      "âĢĭâĢĭâĢĭâĢĭâĢĭâĢĭâĢĭâĢĭ": 4329,
      "æ°ĳéĹ´": 4330,
      "è£ħç½®": 4331,
      "çº¢èī²": 4332,
      "ç²®": 4333,
      "æİ¨åĬ¨": 4334,
      "åĩºå¸Ń": 4335,
      "å°¸": 4336,
      "éľĢæ±Ĥ": 4337,
      "çº¦ä¸º": 4338,
      "æµ·æ´ĭ": 4339,
      "æľīæīĢ": 4340,
      "åıĳåĶ®": 4341,
      "éĵº": 4342,
      "æīĵåĩ»": 4343,
      "çĶŁæĢģ": 4344,
      "èĲ¨æĸ¯": 4345,
      "ly": 4346,
      "å§Ķä¹¦è®°": 4347,
      "å£°æĺİ": 4348,
      "å¤ĦçļĦ": 4349,
      "å®ŀè¡Į": 4350,
      "åı¤ä»£": 4351,
      "è¿Ł": 4352,
      "å¼¥": 4353,
      "ä¸Ī": 4354,
      "Â°": 4355,
      "éĻ¢éķ¿": 4356,
      "ç®Ģä»ĭ": 4357,
      "æ»ļ": 4358,
      "èįĴ": 4359,
      "æĿ¥åĪ°": 4360,
      "æĳĩ": 4361,
      "é«ĺéĢŁåħ¬è·¯": 4362,
      "æķĻå¸Ī": 4363,
      "art": 4364,
      "å±ķç¤º": 4365,
      "åľ°éĿ¢": 4366,
      "ç¤¾ä¼ļä¸»ä¹ī": 4367,
      "âĢ¦âĢ¦": 4368,
      "å¸ĪèĮĥ": 4369,
      "é¢ĨåľŁ": 4370,
      "å¡«": 4371,
      "ç®Ģåįķ": 4372,
      "hans": 4373,
      "åı°åĮĹå¸Ĥ": 4374,
      "å¦ĥ": 4375,
      "æľīä¸Ģä¸ª": 4376,
      "å±Ģéķ¿": 4377,
      "å®ļä¸º": 4378,
      "èģĺ": 4379,
      "å²ģçļĦ": 4380,
      "çŁ¥åĲį": 4381,
      "åĵ²åŃ¦": 4382,
      "è´«": 4383,
      "1979": 4384,
      "å°¼äºļå·ŀ": 4385,
      "ä¸įæ»¡": 4386,
      "èĬĴ": 4387,
      "æįŁå¤±": 4388,
      "çħ¤": 4389,
      "è²": 4390,
      "åľ°çĤ¹": 4391,
      "çĪ¶æ¯į": 4392,
      "èĤ¥": 4393,
      "å°ıçļĦ": 4394,
      "èĭ±å°º": 4395,
      "ä¹ĲéĺŁ": 4396,
      "æĻļä¸Ĭ": 4397,
      "å®ĩå®Ļ": 4398,
      "åľ¨ä¸Ģ": 4399,
      "ç¯®çĲĥ": 4400,
      "å¹´çĶ±": 4401,
      "æŁĶ": 4402,
      "è¢«è®¤ä¸ºæĺ¯": 4403,
      "ä½ıå®ħ": 4404,
      "åįģåŃĹ": 4405,
      "73": 4406,
      "åİĭåĬĽ": 4407,
      "æķĻåŃ¦": 4408,
      "eb": 4409,
      "éĥ¨èĲ½": 4410,
      "åıĤåĬłäºĨ": 4411,
      "ä¸īè§Ĵ": 4412,
      "äº¿åħĥ": 4413,
      "å·¥åħ·": 4414,
      "å¹¿ä¸ľçľģ": 4415,
      "est": 4416,
      "åī²": 4417,
      "æīįèĥ½": 4418,
      "æĪıåī§": 4419,
      "..": 4420,
      "åĳ½åĲįä¸º": 4421,
      "è½¯ä»¶": 4422,
      "é¹°": 4423,
      "é³įé±¼": 4424,
      "å¼ºè°ĥ": 4425,
      "ä¸ŃéĹ´": 4426,
      "éķ¿åº¦": 4427,
      "æ··åĲĪ": 4428,
      "æ³ķæ¡Ī": 4429,
      "é¢Ĩè¢ĸ": 4430,
      "ç¾½æ¯ĽçĲĥ": 4431,
      "è¯ģæį®": 4432,
      "èĪŀåı°": 4433,
      "ç¥ŀç»ı": 4434,
      "ç¨¿": 4435,
      "ä½ľæĽ²": 4436,
      "ç±³çļĦ": 4437,
      "æĺ¯ä»¥": 4438,
      "æĬĹè®®": 4439,
      "æıŃ": 4440,
      "74": 4441,
      "éĤ£éĩĮ": 4442,
      "åı¦ä¸Ģä¸ª": 4443,
      "æķĪæŀľ": 4444,
      "å£°ç§°": 4445,
      "éĻįä½İ": 4446,
      "å¥¹åľ¨": 4447,
      "éĺª": 4448,
      "ä¸¾è¡ĮçļĦ": 4449,
      "ä¸ĵéĹ¨": 4450,
      "èµ¶": 4451,
      "çĽ¸æ¯Ķ": 4452,
      "å»Ĭ": 4453,
      "æĽ´åĬł": 4454,
      "ä»ĳ": 4455,
      "æĺİæ²»": 4456,
      "éĿ¢å¯¹": 4457,
      "ä»£è¡¨åĽ¢": 4458,
      ";}-": 4459,
      "éĺ®": 4460,
      "æŃ£å¸¸": 4461,
      "åĩºæĿ¥": 4462,
      "å¤ļç§į": 4463,
      "ç¡®è®¤": 4464,
      "You": 4465,
      "æŀĿ": 4466,
      "é¡¾éĹ®": 4467,
      "æĶ¶è´Ń": 4468,
      "ä¸ĭå±ŀ": 4469,
      "ä¹Łåı¯ä»¥": 4470,
      "1978": 4471,
      "ä¹¾éļĨ": 4472,
      "å¼ĢéĢļ": 4473,
      "çļĦéĩįè¦ģ": 4474,
      "çıĬ": 4475,
      "åĨĴ": 4476,
      "å¯¹æŃ¤": 4477,
      "è£ķ": 4478,
      "é¥Ń": 4479,
      "ä¸Ļ": 4480,
      "åĽĽåįģ": 4481,
      "ä¿ĺ": 4482,
      "ph": 4483,
      "å¹¿è¥¿": 4484,
      "çļĦåĽ½å®¶": 4485,
      "å«Į": 4486,
      "ä¸İåħ¶ä»ĸ": 4487,
      "éĥ½å¸Ĥ": 4488,
      "åľ¨åħ¶": 4489,
      "åħ³éĹŃ": 4490,
      "ä¹¡è¯ķ": 4491,
      "ä»¥åīį": 4492,
      "æĩ": 4493,
      "ä¸ľåĮĹéĥ¨": 4494,
      "95": 4495,
      "éĢ¢": 4496,
      "åı¸æ³ķ": 4497,
      "å¤·": 4498,
      "å¤ªç©º": 4499,
      "éĽĩ": 4500,
      "åıĳçİ°äºĨ": 4501,
      "é¸¿": 4502,
      "ç§įæĹı": 4503,
      "æºĲäºİ": 4504,
      "æ¬£": 4505,
      "æĦıä¹ī": 4506,
      "å¹´åīį": 4507,
      "çĬ¯ç½ª": 4508,
      "çĻ½èī²": 4509,
      "ä¸ŃåĽ½äººæ°ĳè§£æĶ¾åĨĽ": 4510,
      "å¹¶åħ¥": 4511,
      "èĨľ": 4512,
      "ç»ıéªĮ": 4513,
      "æĢĴ": 4514,
      "èĥİ": 4515,
      "åıĤè°ĭ": 4516,
      "æĸľ": 4517,
      "é©¾é©¶": 4518,
      "å¸ħ": 4519,
      "è¾Ĳé³įé±¼": 4520,
      "å²ģæĹ¶": 4521,
      "æŃ¥åħµ": 4522,
      "ä¹ĭä¸Ń": 4523,
      "éĤ¨": 4524,
      "ä¸ĬåįĪ": 4525,
      "å¯¨": 4526,
      "å¾Īå¿«": 4527,
      "ä¸¾äºº": 4528,
      "çĲĥä¼ļ": 4529,
      "åĲĪæĪĲ": 4530,
      "çļĦä½ľåĵģ": 4531,
      "æŁıæŀĹ": 4532,
      "åħĭèİ±": 4533,
      "è¾Ĳé³įé±¼çº²": 4534,
      "åıĺå¾Ĺ": 4535,
      "æĬ¢": 4536,
      "Ġ1": 4537,
      "åĲ¾": 4538,
      "æ´ģ": 4539,
      "æ¶¦": 4540,
      "åħĪçĶŁ": 4541,
      "åŀĭçļĦ": 4542,
      "å¸ĥå°Ķ": 4543,
      "æĶ¹éĢł": 4544,
      "åĢĻéĢīäºº": 4545,
      "è½¬ç§»": 4546,
      "ç¡ķå£«": 4547,
      "æģĲæĢ": 4548,
      "Ġa": 4549,
      "åĮĹèµ·": 4550,
      "è¯¥åľ°çļĦ": 4551,
      "æĹłäºº": 4552,
      "ä¸ĭéĻį": 4553,
      "çĭĤ": 4554,
      "æĮª": 4555,
      "å¹´åĪĿ": 4556,
      "ä»£è¡¨å¤§ä¼ļ": 4557,
      "æĶ¹åĸĦ": 4558,
      "å¼Ģè®¾": 4559,
      "åĬŀäºĭ": 4560,
      "1946": 4561,
      "åĪ¶çļĦ": 4562,
      "é£Łçī©": 4563,
      "åĥ§": 4564,
      "æ·®": 4565,
      "èħ¾": 4566,
      "åĮĹäº¬å¸Ĥ": 4567,
      "éĻĦè¿ĳçļĦ": 4568,
      "ï¼ļï¼īï¼Į": 4569,
      "éħįåĲĪ": 4570,
      "æµ·å³¡": 4571,
      "çļĦæĥħåĨµä¸ĭ": 4572,
      "åĩłä¸ª": 4573,
      "åºŀ": 4574,
      "äººåı£å¯Ĩåº¦ä¸ºæ¯ı": 4575,
      "æ¯Ķä¾ĭ": 4576,
      "ive": 4577,
      "é£İéĻ©": 4578,
      "hk": 4579,
      "é©±éĢĲ": 4580,
      "èĢĹ": 4581,
      "åĬ¿åĬĽ": 4582,
      "åĤħ": 4583,
      "éĢĢå½¹": 4584,
      "èĤº": 4585,
      "ç¥¨æĪ¿": 4586,
      "1981": 4587,
      "åįİçĽĽ": 4588,
      "åĽŀåºĶ": 4589,
      "äº¨åĪ©": 4590,
      "åĽ½å®¶éĺŁ": 4591,
      "åį³ä½¿": 4592,
      "åĩºæ¼Ķ": 4593,
      "å½ĵå¹´": 4594,
      "åĿ¦åħĭ": 4595,
      "è¦ĨçĽĸ": 4596,
      "åłª": 4597,
      "èĭıæł¼åħ°": 4598,
      "Ġ3": 4599,
      "å¤§å¥ĸ": 4600,
      "æ¸©åº¦": 4601,
      "ä¸įä»ħ": 4602,
      "æľºåĻ¨": 4603,
      "éĩıçļĦ": 4604,
      "æµ·å¤ĸ": 4605,
      "è¯·æ±Ĥ": 4606,
      "å¯¹è±¡": 4607,
      "ç½¢": 4608,
      "è£ħå¤ĩ": 4609,
      "æī©å¤§": 4610,
      "85": 4611,
      "å¹´ç¾İåĽ½äººåı£æĻ®æŁ¥çļĦæķ°æį®": 4612,
      "èŁ": 4613,
      "åįİçĽĽé¡¿": 4614,
      "ä¸ĢæĿ¡": 4615,
      "åįĹæĸ¹": 4616,
      "äººåı£å¯Ĩåº¦ä¸ºæ¯ıå¹³æĸ¹åįĥç±³": 4617,
      "æ°ĶæĹĭ": 4618,
      "æī¾åĪ°": 4619,
      "ä¿Ŀç½Ĺ": 4620,
      "åľ¨è¯¥": 4621,
      "ä¸Ńæľī": 4622,
      "çģ«ç®Ń": 4623,
      "ç»ıçĲĨ": 4624,
      "å½ĵåľ°åħ±æľīäººåı£": 4625,
      "èĢĮäººåı£å¯Ĩåº¦ä¸ºæ¯ıå¹³æĸ¹åįĥç±³": 4626,
      "ç§ĺå¯Ĩ": 4627,
      "å½¢è±¡": 4628,
      "ç§ģäºº": 4629,
      "åľ¨æĹ¥æľ¬": 4630,
      "çŃīçŃī": 4631,
      "ik": 4632,
      "ows": 4633,
      "åŃ¤": 4634,
      "æĪĲæľ¬": 4635,
      "1920": 4636,
      "åĬ³åĬ¨": 4637,
      "1948": 4638,
      "æĹĹä¸ĭ": 4639,
      "çļĦåİĨåı²": 4640,
      "æĹ¥æĬ¥": 4641,
      "è´£ä»»": 4642,
      "ev": 4643,
      "åĵ¥ä¼¦": 4644,
      "ĵé£İ": 4645,
      "æĤī": 4646,
      "1940": 4647,
      "æłĸæģ¯åľ¨": 4648,
      "å¦Ī": 4649,
      "å¹´é¾Ħ": 4650,
      "æĪĺçķ¥": 4651,
      "åĬ¨ä½ľ": 4652,
      "ï¼ı": 4653,
      "ä¸ºè¾Ĳé³įé±¼çº²": 4654,
      "åĿĿ": 4655,
      "çĻ»éĻĨ": 4656,
      "èµĦéĩĳ": 4657,
      "å¹¶ä»¥": 4658,
      "89": 4659,
      "äº¿ç¾İåħĥ": 4660,
      "é£ĵé£İ": 4661,
      "ä¸Ģå®ļ": 4662,
      "çĭĦ": 4663,
      "è¾ĥä¸º": 4664,
      "å½¦": 4665,
      "1958": 4666,
      "åŀĤ": 4667,
      "çģĮ": 4668,
      "æľĢå¤ļ": 4669,
      "åİĨä»»": 4670,
      "é©¬æĭī": 4671,
      "çļĦå±±": 4672,
      "è§Ĥæµĭ": 4673,
      "ä¸¹éº¦": 4674,
      "éĢĨ": 4675,
      "éĢļè½¦": 4676,
      "è¿Ĳä½ľ": 4677,
      "åĨĽåĮº": 4678,
      "ä¸ĭæĿ¥": 4679,
      "ç¬¦åĲĪ": 4680,
      "æĸĩçĮ®": 4681,
      "å·®å¼Ĥ": 4682,
      "æĶ¿åºľçļĦ": 4683,
      "èĬ±åĽŃ": 4684,
      "çļĩåĲİ": 4685,
      "æĮĩå¯¼": 4686,
      "éģµ": 4687,
      "å¤§åİ¦": 4688,
      "è±¡å¾ģ": 4689,
      "ç¢İ": 4690,
      "éĢ»": 4691,
      "çħ§çīĩ": 4692,
      "ä½ĵéķ¿åı¯è¾¾": 4693,
      "æĳĦå½±": 4694,
      "æĬ¼": 4695,
      "å¥¥è¿Ĳä¼ļ": 4696,
      "ç»ĦæĪĲçļĦ": 4697,
      "ä¹ĭåŃĲ": 4698,
      "çļĦéĹ®é¢ĺ": 4699,
      "åĮĸåĲĪçī©": 4700,
      "åµ": 4701,
      "è¥¿åĮĹéĥ¨": 4702,
      "åĪĨéħį": 4703,
      "ä»»èģĮ": 4704,
      "ä¸ľåįĹéĥ¨": 4705,
      "ä¸Ģå®¶": 4706,
      "åĬłçĽŁ": 4707,
      "ä¸Ĭæµ·å¸Ĥ": 4708,
      "çĪĨçĤ¸": 4709,
      "éĢ®": 4710,
      "éĺ²å¾¡": 4711,
      "ä»·æł¼": 4712,
      "æľ´": 4713,
      "æĬĹæĹ¥": 4714,
      "èĢĮè¨Ģ": 4715,
      "çĶ¨ä½ľ": 4716,
      "çĻĮ": 4717,
      "çļĦæķħäºĭ": 4718,
      "åįģåħŃ": 4719,
      "ä¿ĥè¿Ľ": 4720,
      "éħįéŁ³": 4721,
      "ç¬¬åħ«": 4722,
      "æĥħæĬ¥": 4723,
      "éĽĢ": 4724,
      "æģĲæĢĸ": 4725,
      "åĳ¨åĽ´": 4726,
      "åĨħéĻĨ": 4727,
      "æķ´ä½ĵ": 4728,
      "éĥ¨çļĦ": 4729,
      "ue": 4730,
      "å¯¹åºĶ": 4731,
      "å¯¸": 4732,
      "åĿª": 4733,
      "å¹´æĹ¶": 4734,
      "å°ļä¹¦": 4735,
      "ç¼ĸåī§": 4736,
      "éĶĻè¯¯": 4737,
      "äºĨè§£": 4738,
      "æĥ¯": 4739,
      "ill": 4740,
      "ï¼īï¼Ľ": 4741,
      "ä¿®æĶ¹": 4742,
      "æŀĦéĢł": 4743,
      "éĢĢä¼ĳ": 4744,
      "å¤«äºº": 4745,
      "æıĲåĪ°": 4746,
      "èµĭ": 4747,
      "éº¦åħĭ": 4748,
      "è¯´æĺİ": 4749,
      "è¢«è¿«": 4750,
      "ä¸İæİ¥å£¤çļĦå¸Ĥéķĩ": 4751,
      "çŁ¶": 4752,
      "åĬłå¼º": 4753,
      "æ±Łè¥¿": 4754,
      "æīĢå±ŀ": 4755,
      "æ¶µ": 4756,
      "æľºçļĦ": 4757,
      "åĲįä¹ī": 4758,
      "ä»£çĲĨ": 4759,
      "uc": 4760,
      "ç²Ĺ": 4761,
      "åĬłå·ŀ": 4762,
      "æĶ¿åįı": 4763,
      "åľ¨å¤§": 4764,
      "ä¸ºæŃ¢": 4765,
      "ä»£çłģ": 4766,
      "æ°¯": 4767,
      "æ¹ĺ": 4768,
      "åį°å°¼": 4769,
      "åĩĢ": 4770,
      "eg": 4771,
      "if": 4772,
      "å¤ªåŃĲ": 4773,
      "ç¿Į": 4774,
      "è¯ķéªĮ": 4775,
      "åĪĹåħ¥": 4776,
      "all": 4777,
      "æºĲèĩª": 4778,
      "ä¸Ģåº§": 4779,
      "éĵŃ": 4780,
      "çļĦä¸ī": 4781,
      "1000": 4782,
      "èįĲ": 4783,
      "Ġzh": 4784,
      "1972": 4785,
      "å¾·è¯Ń": 4786,
      "AR": 4787,
      "è¥¿åįĹéĥ¨": 4788,
      "ï¼ħ": 4789,
      "ç¾İåĨĽ": 4790,
      "ä¸¤æ¬¡": 4791,
      "å¸¦æĿ¥": 4792,
      "è´µæĹı": 4793,
      "å¦ĩå¥³": 4794,
      "çĭĹ": 4795,
      "ä¿ĿåŃĺ": 4796,
      "çľŁæŃ£": 4797,
      "ç¤ºå¨ģ": 4798,
      "æ°´åºĵ": 4799,
      "åİŁåŃĲ": 4800,
      "åıī": 4801,
      "å£°éŁ³": 4802,
      "ä¼ª": 4803,
      "å¤§èĩ´": 4804,
      "åĦĴ": 4805,
      "åĪ·": 4806,
      "éĺĶ": 4807,
      "åįģä¸ī": 4808,
      "éĻĢ": 4809,
      "æ¯ķä¸ļåĲİ": 4810,
      "æī®æ¼Ķ": 4811,
      "yn": 4812,
      "æłı": 4813,
      "èĬ¬åħ°": 4814,
      "åĪĽå»º": 4815,
      "é»Ħéĩĳ": 4816,
      "éļ¶å±ŀ": 4817,
      "åĲĮçĽŁ": 4818,
      "çĴĥ": 4819,
      "å¯¹å¤ĸ": 4820,
      "çĶµè¯Ŀ": 4821,
      "åı¸é©¬": 4822,
      "é¢Ħè®¡": 4823,
      "æ£ĢæŁ¥": 4824,
      "å±ł": 4825,
      "åĳ¨å¹´": 4826,
      "éģĹäº§": 4827,
      "çļĦåıĳå±ķ": 4828,
      "BC": 4829,
      "å¾ĹçŁ¥": 4830,
      "å¼¦": 4831,
      "éĢļéģĵ": 4832,
      "èµ·ä¹ī": 4833,
      "ip": 4834,
      "éĻ¨": 4835,
      "å¤§èµĽ": 4836,
      "æľĢè¿ĳ": 4837,
      "éĤ£äºĽ": 4838,
      "å½¢æĢģ": 4839,
      "çļĦå¤ĸ": 4840,
      "1930": 4841,
      "çĽ¸ä¿¡": 4842,
      "æł¼ä¸º": 4843,
      "åħ´è¶£": 4844,
      "è²Į": 4845,
      "æı¡": 4846,
      "ĠCh": 4847,
      "ç¡«": 4848,
      "æ³¨åĨĮ": 4849,
      "éĹ½": 4850,
      "1956": 4851,
      "æĿĢæŃ»": 4852,
      "Ġl": 4853,
      "éħ¶": 4854,
      "åĲĪçº¦": 4855,
      "å·¡åĽŀ": 4856,
      "åĽŀå½Ĵ": 4857,
      "è®²è¿°": 4858,
      "åħĭéĩĮæĸ¯": 4859,
      "èĦı": 4860,
      "å¤«åį¡": 4861,
      "çļĦå·¥ä½ľ": 4862,
      "å¼ķåħ¥": 4863,
      "éĩįå¤§": 4864,
      "åįĹèĩ³": 4865,
      "åĽ½å®¶çļĦ": 4866,
      "IC": 4867,
      "é£Łåĵģ": 4868,
      "å°Ŀè¯ķ": 4869,
      "é¦ĸåħĪ": 4870,
      "1976": 4871,
      "å¤ļå¹´": 4872,
      "ä¾ł": 4873,
      "æ·¡æ°´": 4874,
      "In": 4875,
      "1941": 4876,
      "æĹ¬": 4877,
      "ç¼ħçĶ¸": 4878,
      "ich": 4879,
      "å·ŀåºľ": 4880,
      "å§»": 4881,
      "æģ°": 4882,
      "éŃĤ": 4883,
      "æ½Ń": 4884,
      "èİ«æĸ¯ç§ĳ": 4885,
      "ç§ĳåŃ¦éĻ¢": 4886,
      "æ·ĺ": 4887,
      "ç¥Ģ": 4888,
      "æ·»": 4889,
      "åĮĸçŁ³": 4890,
      "èĤĸ": 4891,
      "ack": 4892,
      "æ¸¸æ³³": 4893,
      "å¤§æ¡¥": 4894,
      "è¾°": 4895,
      "æ·±åº¦": 4896,
      "åįİäºº": 4897,
      "1975": 4898,
      "åħ¼ä»»": 4899,
      "åį¡æĸ¯": 4900,
      "å¥İ": 4901,
      "ran": 4902,
      "é²¤": 4903,
      "åĮĹæµ·": 4904,
      "ç»ıåħ¸": 4905,
      "éļıåį³": 4906,
      "åħĭæĭī": 4907,
      "æ³ķå®ĺ": 4908,
      "å±ŀä¸ĭçļĦä¸Ģä¸ªç§į": 4909,
      "å°ĳå¥³": 4910,
      "æ²¿æµ·": 4911,
      "indows": 4912,
      "å±±è¥¿": 4913,
      "éĢ®æįķ": 4914,
      "èĥ¸": 4915,
      "å¥¥å°Ķ": 4916,
      "å©Ĩ": 4917,
      "æĬķéĻį": 4918,
      "ä¸Ģçº§": 4919,
      "ç»Ħå»º": 4920,
      "åľ°åĽ¾": 4921,
      "AM": 4922,
      "å¯Ĵ": 4923,
      "92": 4924,
      "éĩĬæĶ¾": 4925,
      "æĢ§åĪ«": 4926,
      "åį¡æĭī": 4927,
      "è§£æķ£": 4928,
      "èĸĦ": 4929,
      "åłĨ": 4930,
      "æľĪåĪĿ": 4931,
      "åĲĲ": 4932,
      "åĳĺå·¥": 4933,
      "åģ¿": 4934,
      "æ£Ģæµĭ": 4935,
      "é¸£": 4936,
      "ä¸Ĭè¿°": 4937,
      "ge": 4938,
      "éĢĢåĩº": 4939,
      "æĮªå¨ģ": 4940,
      "å¨ĥ": 4941,
      "Ġh": 4942,
      "çĶ¨éĢĶ": 4943,
      "å¸¦é¢Ĩ": 4944,
      "é«ĺäºİ": 4945,
      "æ±ª": 4946,
      "OS": 4947,
      "çļĦæĹ¶éĹ´": 4948,
      "çĽĳçĿ£": 4949,
      "1968": 4950,
      "600": 4951,
      "ç³»ç»ŁçļĦ": 4952,
      "è½°çĤ¸": 4953,
      "ä½ľåĩº": 4954,
      "çļĦåħ³ç³»": 4955,
      "åģ·": 4956,
      "èĥ½éĩı": 4957,
      "BS": 4958,
      "å¨ĺ": 4959,
      "1937": 4960,
      "é¢Ĩå¯¼äºº": 4961,
      "åıł": 4962,
      "åĲĽä¸»": 4963,
      "æĺ¯å¾·åĽ½": 4964,
      "ä¸ĩåİĨ": 4965,
      "åĪĨåĪ«ä¸º": 4966,
      "åį±æľº": 4967,
      "æī¶": 4968,
      "æĦĪ": 4969,
      "èĦĬ": 4970,
      "1947": 4971,
      "å¾·å°Ķ": 4972,
      "å¼łä¸ĵè¾ĳ": 4973,
      "çģ«å±±": 4974,
      "ä¼ĺåĬ¿": 4975,
      "Ã©": 4976,
      "ï¼Īï¼īãĢĤ": 4977,
      "ç¨į": 4978,
      "æĪ¿å±ĭ": 4979,
      "ç¿ł": 4980,
      "å°ıåŀĭ": 4981,
      "å¤§è§Ħæ¨¡": 4982,
      "åĨĽåĽ¢": 4983,
      "é»ĳèī²": 4984,
      "åĲı": 4985,
      "éĿĴå²Ľ": 4986,
      "èīºäºº": 4987,
      "çŃīä¸º": 4988,
      "çªģçĦ¶": 4989,
      "end": 4990,
      "Ġ/": 4991,
      "éĺ¶çº§": 4992,
      "ç©ºæ°Ķ": 4993,
      "é¼»": 4994,
      "å¯¹æĬĹ": 4995,
      "\"ï¼Į": 4996,
      "åĬłåĪ©ç¦ı": 4997,
      "é¢ľèī²": 4998,
      "ä½ĨçĶ±äºİ": 4999,
      "çľŁå®ŀ": 5000,
      "è®ºæĸĩ": 5001,
      "ä¾ĭåŃĲ": 5002,
      "éĻĨç»Ń": 5003,
      "å¤ķ": 5004,
      "å®¶äºº": 5005,
      "æĹ¶æ®µ": 5006,
      "æµĭéĩı": 5007,
      "è¾¾å·ŀ": 5008,
      "å¾¡åı²": 5009,
      "çĲ¼": 5010,
      "åħĭçļĦ": 5011,
      "èĭĳ": 5012,
      "æİ¨è¿Ľ": 5013,
      "ä»ĩ": 5014,
      "å¤§å¤ļ": 5015,
      "AC": 5016,
      "èĿ¶": 5017,
      "åĹ£": 5018,
      "ä¸ĳ": 5019,
      "æĺ¯ä¸Ģé¢Ĺ": 5020,
      "ä»ĸè¿ĺ": 5021,
      "é©¬éĩĮ": 5022,
      "ç¬¼": 5023,
      "ong": 5024,
      "æ°´åŁŁéĿ¢ç§¯ä¸º": 5025,
      "éĻĨåľ°éĿ¢ç§¯ä¸º": 5026,
      "çļĦæĶ¯æĮģ": 5027,
      "æĹ¶æľŁçļĦ": 5028,
      "ity": 5029,
      "se": 5030,
      "å°±ä¼ļ": 5031,
      "å¸ĥèİ±": 5032,
      "åİ¢": 5033,
      "åĢº": 5034,
      "åľ¨é¦Ļæ¸¯": 5035,
      "ç«Ļåı°": 5036,
      "çŁ©": 5037,
      "éļ¾ä»¥": 5038,
      "çļĦä¸¤": 5039,
      "æĲº": 5040,
      "èĪ±": 5041,
      "çĽ¸äºĴ": 5042,
      "çīłä»¬": 5043,
      "èĲ¨å°Ķ": 5044,
      "èµĦäº§": 5045,
      "çº³ç²¹": 5046,
      "è¿Ļæł·çļĦ": 5047,
      "ä¿ĿéĻ©": 5048,
      "å®¶çļĦ": 5049,
      "ä¾ĽåºĶ": 5050,
      "ç¬¬äºĮæ¬¡ä¸ĸçķĮå¤§æĪĺ": 5051,
      "ä»ĸä¸İ": 5052,
      "æ¯Ķå¦Ĥ": 5053,
      "åįµ": 5054,
      "ä¿Ŀå®Ī": 5055,
      "æŃ¤ç«Ļ": 5056,
      "æĦıè§ģ": 5057,
      "ç«ĭåį³": 5058,
      "ä»ĸè¢«": 5059,
      "å½ĵå¤©": 5060,
      "æĬĳ": 5061,
      "æī«": 5062,
      "å¸¦æľī": 5063,
      "å®ļå±ħ": 5064,
      "æĤ£èĢħ": 5065,
      "å¯»æī¾": 5066,
      "åĨľæĿĳ": 5067,
      "æľįå½¹": 5068,
      "æĸ¤": 5069,
      "åįģåħ«": 5070,
      "åħ¬çĪµ": 5071,
      "æ¬¡å¹´": 5072,
      "åĳİ": 5073,
      "ç©ºä¸Ń": 5074,
      "åŁİåł¡": 5075,
      "çĲĥåŃ£": 5076,
      "ç»Ŀå¯¹": 5077,
      "çĲī": 5078,
      "èĮµ": 5079,
      "93": 5080,
      "çī¹èī²": 5081,
      "éĨĩ": 5082,
      "çĭ¼": 5083,
      "éĨĴ": 5084,
      "ç£¨": 5085,
      "äºļåİĨå±±å¤§": 5086,
      "ä¼ĺç§Ģ": 5087,
      "æİĴè¡Į": 5088,
      "èĭ¯": 5089,
      "åįĴ": 5090,
      "åħĭç½Ĺ": 5091,
      "å²Ľå±¿": 5092,
      "å±±åĮº": 5093,
      "æĸ¹è¨Ģ": 5094,
      "86": 5095,
      "åħ¶ä¸Ńä¸Ģç§į": 5096,
      "è®¡ç®Ĺæľº": 5097,
      "åĨĽå®ĺ": 5098,
      "ç§ĳå¤«": 5099,
      "ä¸İåħ¶": 5100,
      "ç©Ĩæĸ¯": 5101,
      "å®ŀéªĮå®¤": 5102,
      "æ¶Į": 5103,
      "ER": 5104,
      "åįģäºĶ": 5105,
      "æµĻæ±Łçľģ": 5106,
      "åĬłæĭī": 5107,
      "io": 5108,
      "ä¸°å¯Į": 5109,
      "ĠIn": 5110,
      "æłĭ": 5111,
      "æĥŁ": 5112,
      "é¾Ł": 5113,
      "åĮĹæĸ¹": 5114,
      "åħĨ": 5115,
      "å¿į": 5116,
      "èĴ¸": 5117,
      "ä¼ļéķ¿": 5118,
      "1952": 5119,
      "ä»»åĳ½ä¸º": 5120,
      "å¤§åŃ¦çļĦ": 5121,
      "ä¼ļåĳĺ": 5122,
      "æĹ¥æ²»": 5123,
      "åī¯ä¸»å¸Ń": 5124,
      "å½ĵä¸ŃéĻĨåľ°éĿ¢ç§¯ä¸º": 5125,
      "èĢĮæ°´åŁŁéĿ¢ç§¯ä¸º": 5126,
      "1938": 5127,
      "åĿĩä¸º": 5128,
      "1944": 5129,
      "ian": 5130,
      "åħ¸ç¤¼": 5131,
      "lay": 5132,
      "ä¿®å»º": 5133,
      "Ġto": 5134,
      "åĵ¥ä¼¦æ¯Ķäºļ": 5135,
      "åĺ´": 5136,
      "ä¸Ľ": 5137,
      "çİ°ä»Ĭ": 5138,
      "çĶŁçļĦ": 5139,
      "åī¯ä¸»ä»»": 5140,
      "åİŁåĲį": 5141,
      "ry": 5142,
      "ä»¥å¤ĸ": 5143,
      "ä¼Ĺå¤ļ": 5144,
      "è¥¿åħ°": 5145,
      "æĺİæľĿæĶ¿æ²»äººçī©": 5146,
      "åı²ä¸Ĭ": 5147,
      "åĽ°éļ¾": 5148,
      "1964": 5149,
      "åºŁéĻ¤": 5150,
      "åĩĿ": 5151,
      "ä¸Ģèĩ´": 5152,
      "åī§æľ¬": 5153,
      "æ¯ĶåĪ©æĹ¶": 5154,
      "è¶ĭ": 5155,
      "åĬªåĬĽ": 5156,
      "å±±ä¸ľçľģ": 5157,
      "ä¼ĬåĪ©": 5158,
      "çī¹éĩĮ": 5159,
      "æĮĩæİ§": 5160,
      "çİĩä¸º": 5161,
      "éĢīä¸º": 5162,
      "æĮĩå®ļ": 5163,
      "æ¯Ľæ³½": 5164,
      "èħĲ": 5165,
      "åı·çļĦ": 5166,
      "åĬ«": 5167,
      "1973": 5168,
      "éªĳåħµ": 5169,
      "éĺ»æŃ¢": 5170,
      "æ³ķåħ°è¥¿": 5171,
      "1939": 5172,
      "çŃ¾è®¢": 5173,
      "ä¸ľä¸´": 5174,
      "ä¸»è¦ģçļĦ": 5175,
      "åħ¶ä¸ŃçĶ·æĢ§": 5176,
      "éĺŁéķ¿": 5177,
      "è¥¿å®ī": 5178,
      "ä¸įåĪ°": 5179,
      "è§Ĩé¢ĳ": 5180,
      "å±ķè§Ī": 5181,
      "1966": 5182,
      "æ¶Īè´¹": 5183,
      "çī¹åĪ«æĺ¯": 5184,
      "ast": 5185,
      "è¢«è§Ĩä¸º": 5186,
      "æ´¾éģ£": 5187,
      "äº²çİĭ": 5188,
      "åıĤéĢī": 5189,
      "é©¬æĸ¯": 5190,
      "ä¸»è¦ģæĺ¯": 5191,
      "æĽ´æĸ°": 5192,
      "åįĩçº§": 5193,
      "çĶŁæĪĲ": 5194,
      "çļĦä¸Ń": 5195,
      "åĬŀäºĭå¤Ħ": 5196,
      "åŃ¦å£«": 5197,
      "åĽºå®ļ": 5198,
      "120": 5199,
      "æĦıå¿Ĺ": 5200,
      "åĬŀçĲĨ": 5201,
      "JR": 5202,
      "ä¸īä¸ĸ": 5203,
      "åĺīéĿĸ": 5204,
      "è¯ı": 5205,
      "æĶ¹åĪ¶": 5206,
      "æĶ¯æµģ": 5207,
      "éĻķè¥¿": 5208,
      "æ»¡è¶³": 5209,
      "å¼ĹæľĹ": 5210,
      "èĩªèº«": 5211,
      "ä¹Łä¸į": 5212,
      "åħįè´¹": 5213,
      "åĬĿ": 5214,
      "å¤©çļĩ": 5215,
      "ä¹ĭæĪĺ": 5216,
      "æİĺ": 5217,
      "Ġde": 5218,
      "èĥ½æºĲ": 5219,
      "åīįèº«": 5220,
      "æ¯Ľæ³½ä¸ľ": 5221,
      "æŃ¤æ¬¡": 5222,
      "çĻ»ä¸Ĭ": 5223,
      "å¼Ģå±ķ": 5224,
      "åİŁå§ĭ": 5225,
      "ä¾Ŀæį®": 5226,
      "æĽ´ä¸º": 5227,
      "å·²è¢«": 5228,
      "æŃ»åĲİ": 5229,
      "çĮĽ": 5230,
      "è½¬åĲĳ": 5231,
      "éĢļè®¯": 5232,
      "ä¸¤åĽ½": 5233,
      "åľ¨äºİ": 5234,
      "åİŁä½ı": 5235,
      "éĦĤ": 5236,
      "å¹³åİŁ": 5237,
      "æĹħè¡Į": 5238,
      "ä¸Ĭä¸ĭ": 5239,
      "åº·çĨĻ": 5240,
      "åĳĬè¯ī": 5241,
      "è°ĪåĪ¤": 5242,
      "åĨľæ°ĳ": 5243,
      "ç§įåŃĲ": 5244,
      "åħ·ä½ĵ": 5245,
      "åĲ¯åĬ¨": 5246,
      "è¿ĽæŃ¥": 5247,
      "ç»Īäºİ": 5248,
      "çī¹æĭī": 5249,
      "Ġg": 5250,
      "ç»ĻäºĨ": 5251,
      "æ¶Ĥ": 5252,
      "å½¢çĽ®": 5253,
      "åĬ©çĲĨ": 5254,
      "å§¬": 5255,
      "ç¥ł": 5256,
      "æīĢæľīçļĦ": 5257,
      "çĶ±æŃ¤": 5258,
      "éŁµ": 5259,
      "ä¸Ńè¢«": 5260,
      "ä»ĸäºİ": 5261,
      "å§ļ": 5262,
      "éĹ´çļĦ": 5263,
      "çİ°å®ŀ": 5264,
      "å°¼åħĭ": 5265,
      "åī§éĽĨ": 5266,
      "ç½ĳçĲĥ": 5267,
      "æľ¬åľ°": 5268,
      "æª": 5269,
      "ä»ĸä¹Ł": 5270,
      "å¾·çļĦ": 5271,
      "è®¤è¯Ĩ": 5272,
      "èĢĥè¯ķ": 5273,
      "æľĪçļĦ": 5274,
      "96": 5275,
      "1974": 5276,
      "HD": 5277,
      "æĿ°åħĭ": 5278,
      "1955": 5279,
      "ä¸Ĭæľī": 5280,
      "çĽ¸åħ³çļĦ": 5281,
      "é¦ĸåºľ": 5282,
      "çŁ³æ²¹": 5283,
      "ä¸Ģæ®µ": 5284,
      "ç´§æĢ¥": 5285,
      "87": 5286,
      "ä¸»åĬŀ": 5287,
      "æłª": 5288,
      "åĪ¶å®ļ": 5289,
      "è¯ŃçļĦ": 5290,
      "ä¹łæĢ§": 5291,
      "éĵľçīĮ": 5292,
      "äº§çĶŁçļĦ": 5293,
      "åħ³éĶ®": 5294,
      "ä¹¦éĻ¢": 5295,
      "äºĮäºº": 5296,
      "åľºçļĦ": 5297,
      "1900": 5298,
      "ä¾¨": 5299,
      "å®ĥæĺ¯": 5300,
      "å¾·æĭī": 5301,
      "sp": 5302,
      "å¼¯": 5303,
      "æł¼æĭī": 5304,
      "æļ´åĬĽ": 5305,
      "é©³": 5306,
      "Al": 5307,
      "åĮħæĭ¬ä»¥ä¸ĭ": 5308,
      "åĪ©çĽĬ": 5309,
      "çķĻä¸ĭ": 5310,
      "éªĳå£«": 5311,
      "éĿŀå»ºåĪ¶": 5312,
      "äº¦æĺ¯": 5313,
      "åĪĨç¦»": 5314,
      "82": 5315,
      "çªģçł´": 5316,
      "çī¹å®ļ": 5317,
      "åįģåĽĽ": 5318,
      "æ³¢ç½Ĺ": 5319,
      "çıĢ": 5320,
      "æİ¥æĶ¶": 5321,
      "å¹´åĪ°": 5322,
      "éĽ·æĸ¯": 5323,
      "Ġï¼Ī": 5324,
      "å¯¼å¼¹": 5325,
      "ä½Ľç½Ĺ": 5326,
      "83": 5327,
      "è´¨çĸĳ": 5328,
      "çļĦæĪĲåĳĺ": 5329,
      "çłģå¤´": 5330,
      "å¥Ķ": 5331,
      "ä¸ĭä»¤": 5332,
      "èĸĽ": 5333,
      "ä¸Ĭå¸Ĥ": 5334,
      "æī©å±ķ": 5335,
      "æľĿå»·": 5336,
      "ä¸Īå¤«": 5337,
      "å½ķéŁ³": 5338,
      "one": 5339,
      "ä¾ĿçĦ¶": 5340,
      "æĥħåĨµä¸ĭ": 5341,
      "æ³¡": 5342,
      "é±¼ç±»": 5343,
      "800": 5344,
      "æīĭæľº": 5345,
      "é¢ĩ": 5346,
      "ä¸Ģæŀļ": 5347,
      "åħ¶ä¸ŃåĮħæĭ¬": 5348,
      "èµĦæľ¬": 5349,
      "å·´å°Ķ": 5350,
      "å¾·åįİ": 5351,
      "åŁºéĩĳä¼ļ": 5352,
      "1977": 5353,
      "1954": 5354,
      "åĸľåī§": 5355,
      "éĽĮ": 5356,
      "å®¡æŁ¥": 5357,
      "è´µå·ŀ": 5358,
      "èľĤ": 5359,
      "éĹ¸": 5360,
      "æ´ĽæĿī": 5361,
      "Ġ4": 5362,
      "å»¶éķ¿": 5363,
      "çļĦåĲİ": 5364,
      "éĺ¿æł¹": 5365,
      "åİŁåĪĻ": 5366,
      "ä¼ļä¸Ĭ": 5367,
      "æĳĨ": 5368,
      "è¿Ļéĥ¨": 5369,
      "åĪºåı²": 5370,
      "åı¯ä»¥åľ¨": 5371,
      "æ´ĽæĿīçŁ¶": 5372,
      "ber": 5373,
      "æĺ¯ä¸Ģåº§": 5374,
      "æ£Ģå¯Ł": 5375,
      "å»ºçŃĳçī©": 5376,
      "èĤĮ": 5377,
      "å¤įåħ´": 5378,
      "æ±Łèĭıçľģ": 5379,
      "åī§éĻ¢": 5380,
      "ä¸¤åĲį": 5381,
      "ant": 5382,
      "åĳĪçİ°": 5383,
      "æ³¢æĸ¯": 5384,
      "åĨħæĪĺ": 5385,
      "æĺİç¡®": 5386,
      "æ±°": 5387,
      "1942": 5388,
      "éĿŀå»ºåĪ¶åľ°åĮº": 5389,
      "ä»¤äºº": 5390,
      "çĵ¦å°Ķ": 5391,
      "å©ļå§»": 5392,
      "ä¸ĸçķĮä¸Ĭ": 5393,
      "éĺ¿æł¹å»·": 5394,
      "è¯ģå®ŀ": 5395,
      "éķ¿å®ĺ": 5396,
      "å½ĵåľ°çļĦ": 5397,
      "ç§°ä½ľ": 5398,
      "èĩ³äºİ": 5399,
      "è¾¾å°Ķ": 5400,
      "ç»´æĬ¤": 5401,
      "æĶ¶è§Ĩ": 5402,
      "å§ľ": 5403,
      "è¿ĳå¹´": 5404,
      "éķ¿æ±Ł": 5405,
      "åĳ¨æľŁ": 5406,
      "éĤ£ä¹Ī": 5407,
      "ä¿Ŀéļľ": 5408,
      "éĹª": 5409,
      "è¿ĲçĶ¨": 5410,
      "åħļçļĦ": 5411,
      "å·²æľī": 5412,
      "çļĦè®¾è®¡": 5413,
      "åħ¬å®ī": 5414,
      "å¥¶": 5415,
      "1965": 5416,
      "çłĸ": 5417,
      "æľºåĪ¶": 5418,
      "é¦ĸä¸ª": 5419,
      "1971": 5420,
      "Ġv": 5421,
      "èĢĮéĿŀ": 5422,
      "æ½ľèīĩ": 5423,
      "èĩªæĿĢ": 5424,
      "å§Ĭ": 5425,
      "æĺ¯é¦Ļæ¸¯": 5426,
      "æĹ¥æľŁ": 5427,
      "81": 5428,
      "ç©Ĩæĸ¯æŀĹ": 5429,
      "ç¦ħ": 5430,
      "160": 5431,
      "æķ¢": 5432,
      "çłĤ": 5433,
      "äººåı£ä¸º": 5434,
      "å¿Ļ": 5435,
      "ä¼łåªĴ": 5436,
      "é¹¤": 5437,
      "æĶ¹åĲįä¸º": 5438,
      "çĬ¬": 5439,
      "æľīæľº": 5440,
      "Ġåľ¨": 5441,
      "è¿ĻéĩĮ": 5442,
      "ç«ŀéĢī": 5443,
      "æĭĸ": 5444,
      "æľ¬å±ŀ": 5445,
      "ç¬¦åı·": 5446,
      "çļĦçĶµå½±": 5447,
      "æľ¬çīĩ": 5448,
      "1959": 5449,
      "æĺŃåĴĮ": 5450,
      "éļľç¢į": 5451,
      "1936": 5452,
      "1967": 5453,
      "å¾Ģå¾Ģ": 5454,
      "è®¾å®ļ": 5455,
      "è¾½å®ģ": 5456,
      "åľ°è´¨": 5457,
      "ON": 5458,
      "æ±Ŀ": 5459,
      "ew": 5460,
      "éĩĩè®¿": 5461,
      "'s": 5462,
      "çĽĳå¯Ł": 5463,
      "å¤§ä¼Ĺ": 5464,
      "ort": 5465,
      "è¾¹å¢ĥ": 5466,
      "1969": 5467,
      "æ±Ģ": 5468,
      "éĵ¸": 5469,
      "æ»¨æµ·": 5470,
      "çļĦäºĭ": 5471,
      "ä¹īå¤§åĪ©": 5472,
      "ç§ĳåŃ¦å®¶": 5473,
      "åľ°å¸¦": 5474,
      "å¿§": 5475,
      "æ´¾åĩº": 5476,
      "åĪ©æĸ¯": 5477,
      "å¿½": 5478,
      "éĤ»è¿ĳ": 5479,
      "è´©": 5480,
      "1943": 5481,
      "ç®¡çĲĨå±Ģ": 5482,
      "éĢ¼": 5483,
      "ç»¿èī²": 5484,
      "æĭ¼": 5485,
      "å¹¶ä¸İ": 5486,
      "æĪĲéĥ½": 5487,
      "åľ¨åı°æ¹¾": 5488,
      "æıĲä¾ĽäºĨ": 5489,
      "äº¤æį¢": 5490,
      "IS": 5491,
      "å·¢": 5492,
      "ä»¥åĮĹ": 5493,
      "91": 5494,
      "åĿļæĮģ": 5495,
      "åĢ¡": 5496,
      "84": 5497,
      "æİ¨å¹¿": 5498,
      "å¸ĤæĶ¿åºľ": 5499,
      "å¯®": 5500,
      "åħ¶å®ŀ": 5501,
      "åĲĮæĢ§": 5502,
      "åĽ½æ°ĳæĶ¿åºľ": 5503,
      "ä¿®æŃ£": 5504,
      "æīĢè°ĵ": 5505,
      "94": 5506,
      "æĻĭçº§": 5507,
      "AN": 5508,
      "æĤ²": 5509,
      "æĭĨéĻ¤": 5510,
      "ä»Ĭå¤©": 5511,
      "åħĭå°Ķ": 5512,
      "æīĵç®Ĺ": 5513,
      "åį±éĻ©": 5514,
      "ä¸ŃæľŁ": 5515,
      "èµ°åĲĳ": 5516,
      "æĸĲ": 5517,
      "å»ºç«ĭäºĨ": 5518,
      "çİ»çĴĥ": 5519,
      "æĮĩç¤º": 5520,
      "æĳ§": 5521,
      "å®īä¸ľ": 5522,
      "å¸Ĥä¸Ńå¿ĥ": 5523,
      "97": 5524,
      "æľ¬ä½ľ": 5525,
      "ç»´åŁĥ": 5526,
      "åĩī": 5527,
      "æĭĺ": 5528,
      "çļĦæ°´": 5529,
      "å±Ī": 5530,
      "æ»ķ": 5531,
      "åĽ´ç»ķ": 5532,
      "å®Ľ": 5533,
      "æ°Ķåİĭ": 5534,
      "ç°": 5535,
      "èĴĻçī¹": 5536,
      "ep": 5537,
      "çķĻåľ¨": 5538,
      "åįłåľ°": 5539,
      "å¯ĵ": 5540,
      "å¤©çĦ¶": 5541,
      "æ¼Ķå¥ı": 5542,
      "å°¼å°Ķ": 5543,
      "å·¥ç¨ĭå¸Ī": 5544,
      "å·«": 5545,
      "éĵ¶çīĮ": 5546,
      "ä¸»ä¹īèĢħ": 5547,
      "åĪĨè£Ĥ": 5548,
      "ç½Ĺé©¬å°¼äºļ": 5549,
      "æĶ¯ä»ĺ": 5550,
      "è¯Ħä¼°": 5551,
      "é¢Ĩäºĭ": 5552,
      "æł¡åĮº": 5553,
      "1957": 5554,
      "è½¬æį¢": 5555,
      "æĢģåº¦": 5556,
      "å°¼è¥¿äºļ": 5557,
      "ç¡®è¯ĬçĹħä¾ĭ": 5558,
      "åľºæ¯ĶèµĽ": 5559,
      "èĽĽ": 5560,
      "åĪĻä¸º": 5561,
      "æº¯": 5562,
      "ĠåĴĮ": 5563,
      "æł½": 5564,
      "ä»¥åįĹ": 5565,
      "æĬĵ": 5566,
      "å¼Łå¼Ł": 5567,
      "å¼ºåº¦": 5568,
      "çĶĺèĤĥ": 5569,
      "çļĦéŁ³ä¹Ĳ": 5570,
      "åı¤åħ¸": 5571,
      "å¤§å¹ħ": 5572,
      "åĩºåıĳ": 5573,
      "éĿłè¿ĳ": 5574,
      "qu": 5575,
      "æ¬§çĽŁ": 5576,
      "äº²èĩª": 5577,
      "1962": 5578,
      "åĪĨåĪ«æĺ¯": 5579,
      "èĢĮä¸įæĺ¯": 5580,
      "æĸ¯æĭīå¤«": 5581,
      "AP": 5582,
      "åĲģ": 5583,
      "æŁ´æ²¹": 5584,
      "ä¿®å¤į": 5585,
      "åħ¬åħĥåīį": 5586,
      "ä¹¦ç±į": 5587,
      "Windows": 5588,
      "âĶ": 5589,
      "å®¶ä¸Ń": 5590,
      "ä¹Łå°±æĺ¯": 5591,
      "æ³ķçļĦ": 5592,
      "éĢĤåĲĪ": 5593,
      "å´©": 5594,
      "åķĨåĵģ": 5595,
      "åįĹéĿŀ": 5596,
      "ç¿Ķ": 5597,
      "èķ¾": 5598,
      "å¾ĹåĲį": 5599,
      "å°¹": 5600,
      "æĴ°åĨĻ": 5601,
      "ç¦»åŃĲ": 5602,
      "1953": 5603,
      "æľ¬ç§ĳ": 5604,
      "ä¸Ĭåįĩ": 5605,
      "åĲĦèĩª": 5606,
      "æ·ĺæ±°": 5607,
      "æĬ±": 5608,
      "å¤§éĢī": 5609,
      "æ¸¯åı£": 5610,
      "1961": 5611,
      "ç¨»": 5612,
      "åľ¨åĨħçļĦ": 5613,
      "ç¢§": 5614,
      "å¼ıçļĦ": 5615,
      "åĩºçīĪç¤¾": 5616,
      "çĶ«": 5617,
      "èģĮä¸ļçĶŁæ¶¯": 5618,
      "åľŃ": 5619,
      "å¤©ä½ĵ": 5620,
      "æ£ĺ": 5621,
      "è®°å¿Ĩ": 5622,
      "å¦Ļ": 5623,
      "çĲĨè§£": 5624,
      "ç¡®ä¿Ŀ": 5625,
      "è¿Ŀåıį": 5626,
      "åľ¨ä¸Ń": 5627,
      "èĻ¹": 5628,
      "åįģäºĮå¹´": 5629,
      "ç§ĺä¹¦éķ¿": 5630,
      "è©¹å§Ĩæĸ¯": 5631,
      "æł¡åĽŃ": 5632,
      "ä½įäºİä¸ŃåĽ½": 5633,
      "éĶĢéĩı": 5634,
      "æĪĲç«ĭçļĦ": 5635,
      "éŃģ": 5636,
      "æĪĳçļĦ": 5637,
      "å¯¹æĸ¹": 5638,
      "è¿Ļé¦ĸ": 5639,
      "und": 5640,
      "å¤§éĺª": 5641,
      "å¾ĹåĪ°äºĨ": 5642,
      "åĲīå°Ķ": 5643,
      "åĭŁ": 5644,
      "çĽĨ": 5645,
      "åıįæĺł": 5646,
      "è£ħé¥°": 5647,
      "ä¸ĢåĪĩ": 5648,
      "å®Įå·¥": 5649,
      "è¡ĮçļĦ": 5650,
      "èģĮä½į": 5651,
      "æİĪæĿĥ": 5652,
      "ex": 5653,
      "æ´»è·ĥ": 5654,
      "ç»³": 5655,
      "çŁĽ": 5656,
      "å°Ħåĩ»": 5657,
      "ä¸ŃåĽ½å¤§éĻĨçļĦ": 5658,
      "1963": 5659,
      "ç¬¬ä¹Ŀ": 5660,
      "èĢĥåı¤": 5661,
      "æĺ¯ä¸Ģéĥ¨": 5662,
      "åĭĭç«ł": 5663,
      "Ġst": 5664,
      "ä»¥ä¸º": 5665,
      "æĪĺå£«": 5666,
      "Ġn": 5667,
      "æĽ¾äºİ": 5668,
      "åħ¬äº¤": 5669,
      "åīª": 5670,
      "ss": 5671,
      "èıĬ": 5672,
      "1935": 5673,
      "è¢ĭ": 5674,
      "åĩºåĶ®": 5675,
      "CO": 5676,
      "åŁĭ": 5677,
      "åıĳåĬ¨æľº": 5678,
      "ç¨£": 5679,
      "äººæĿĥ": 5680,
      "çĶµæ°Ķ": 5681,
      "å°Ĩåľ¨": 5682,
      "èĵ¬": 5683,
      "éĻª": 5684,
      "å¤ĸäº¤éĥ¨": 5685,
      "è¹Ī": 5686,
      "our": 5687,
      "å¼ıæľĪåı°": 5688,
      "å¿ħè¦ģ": 5689,
      "ä¼½": 5690,
      "åįıè°ĥ": 5691,
      "æľĢä½İ": 5692,
      "æĸ¯é¡¿": 5693,
      "é¤Ĳåİħ": 5694,
      "èĥº": 5695,
      "ä¼ļè®®åĳĺ": 5696,
      "é¦ĸçĽ¸": 5697,
      "åĲīæŀĹ": 5698,
      "åĲ¹": 5699,
      "çŃīçº§": 5700,
      "æļĸ": 5701,
      "å«ģ": 5702,
      "ä¸Ģè¯į": 5703,
      "èİ±èĮµ": 5704,
      "çłĶåıĳ": 5705,
      "å¯¹åħ¶": 5706,
      "å°¤åħ¶æĺ¯": 5707,
      "èĢ¶ç¨£": 5708,
      "éºŁ": 5709,
      ")ãĢģ": 5710,
      "åĪĨæĶ¯": 5711,
      "æ°¨": 5712,
      "æĪĲéķ¿": 5713,
      "è°Ń": 5714,
      "åıĳæĺİ": 5715,
      "äºļçĽ®": 5716,
      "å¾ªçİ¯": 5717,
      "éļĭ": 5718,
      "ä¸Ńåįİäººæ°ĳåħ±åĴĮåĽ½æĶ¿æ²»äººçī©": 5719,
      "</": 5720,
      "èĢĮä¸į": 5721,
      "äºĶæľĪ": 5722,
      "ä»ķ": 5723,
      "æ®ĸæ°ĳåľ°": 5724,
      "è¶³çĲĥè¿ĲåĬ¨åĳĺ": 5725,
      "èģĶåĲĪä¼ļ": 5726,
      "åİĺç±³": 5727,
      "ç¤ģ": 5728,
      "æ³¢å°Ķ": 5729,
      "æ¤İ": 5730,
      "ä»ĸæĽ¾ä»£è¡¨": 5731,
      "çļĦå¥³": 5732,
      "åĶĲæľĿ": 5733,
      "åĿĤ": 5734,
      "åĲĦä¸ª": 5735,
      "ä¸¤èĢħ": 5736,
      "éĺ³å¸Ĥ": 5737,
      "å¸¸è§ģçļĦ": 5738,
      "ä¸ŃåĽ½çļĦ": 5739,
      "çİĭåŃĲ": 5740,
      "æ±īæĹı": 5741,
      "éĵĥ": 5742,
      "çĤī": 5743,
      "æĿŃå·ŀ": 5744,
      "ç«ĭæĸ¹": 5745,
      "æĿĢå®³": 5746,
      "ah": 5747,
      "é¼İ": 5748,
      "åįĩä¸º": 5749,
      "å¸Ńä½į": 5750,
      "èĮĥåĽ´åĨħ": 5751,
      "1951": 5752,
      "ãĥ»": 5753,
      "åį¸": 5754,
      "æīģ": 5755,
      "æĿ¡ä¾ĭ": 5756,
      "è¥¿æİ¥": 5757,
      "ID": 5758,
      "é¦ĸæĴŃ": 5759,
      "æĢ§èĥ½": 5760,
      "å¸ĥéĩĮ": 5761,
      "æĳ§æ¯ģ": 5762,
      "åı¦æľī": 5763,
      "åĩºåħ¥åı£": 5764,
      "åĽ½éĻħæľºåľº": 5765,
      "man": 5766,
      "åŃķ": 5767,
      "åıĻåĪ©äºļ": 5768,
      "å¹²éĥ¨": 5769,
      "åĳ¼åĲģ": 5770,
      "åĩĮæĻ¨": 5771,
      "åĨ³è®®": 5772,
      "å°Ĩé¢Ĩ": 5773,
      "åĴ¨": 5774,
      "å¤§åį«": 5775,
      "å¢ŀå¼º": 5776,
      "âĢĻ": 5777,
      "èŃ¦åĳĬ": 5778,
      "çº¤": 5779,
      "åĴĸ": 5780,
      "éħ·": 5781,
      "åį¢çĵ¦å°Ķçľģ": 5782,
      "å¤§å¸Ī": 5783,
      "å¹¶çĶ±": 5784,
      "åĽ½åĨĽ": 5785,
      "æ±¡æŁĵ": 5786,
      "çļĦåĲĮ": 5787,
      "ä¸ºæŃ¤": 5788,
      "æļ¨": 5789,
      "âĶĢ": 5790,
      "æľĪçĲĥ": 5791,
      "æĪĲäºĨ": 5792,
      "æİ¥æĽ¿": 5793,
      "æ³ķåºŃ": 5794,
      "åľºæīĢ": 5795,
      "èĭıä¸¹": 5796,
      "ate": 5797,
      "ï¼Īï¼Įï¼Ľ": 5798,
      "ff": 5799,
      "æľªçŁ¥": 5800,
      "åħ¶ä¸Ńä¸Ģ": 5801,
      "æķ°çļĦ": 5802,
      "è´§å¸ģ": 5803,
      "éķ¿åŃĲ": 5804,
      "å¹½": 5805,
      "è¤": 5806,
      "é¸Łç±»": 5807,
      "æĺ¯ä¹Įåħĭåħ°": 5808,
      "æĬµæĬĹ": 5809,
      "æľ¬çº¿": 5810,
      "åĲ§": 5811,
      "æ´Ľåħĭ": 5812,
      "åīĬ": 5813,
      "æĶ¶èĹı": 5814,
      "ens": 5815,
      "åĮºåĨħ": 5816,
      "èĦ¸": 5817,
      "æĮĸ": 5818,
      "ç¼©åĨĻ": 5819,
      "èģĶç»ľ": 5820,
      "åįĩä»»": 5821,
      "åıĹæ¬¢è¿İ": 5822,
      "è¿¦": 5823,
      "åĽĽå·Ŀçľģ": 5824,
      "è·Łéļı": 5825,
      "åľºæĻ¯": 5826,
      "åıĳè¨Ģ": 5827,
      "åĲŀ": 5828,
      "ç»´æĸ¯": 5829,
      "åĨłçĬ¶": 5830,
      "åĤ¬": 5831,
      "çĭŃ": 5832,
      "éĹ²": 5833,
      "åı¸ä»¤éĥ¨": 5834,
      "åħļåĳĺ": 5835,
      "æĺİæĺŁ": 5836,
      "çļĦä¸ĢäºĽ": 5837,
      "åįĩæł¼ä¸º": 5838,
      "è®¾äºİ": 5839,
      "åģľè½¦": 5840,
      "èīºæľ¯å®¶": 5841,
      "é¢Ī": 5842,
      "æģ©çľģ": 5843,
      "æĸĩæĺİ": 5844,
      "åĩºçİ°äºĨ": 5845,
      "çĽĳçĭ±": 5846,
      "æĶ¶éĽĨ": 5847,
      "åİŁä½ıæ°ĳ": 5848,
      "åĲĦåĽ½": 5849,
      "æĹ¥æŃ£å¼ı": 5850,
      "ä½Ĩä»ĸ": 5851,
      "æ¦Ĥè¦ģ": 5852,
      "åľ¨ä»ĸ": 5853,
      "oh": 5854,
      "ç§ĳçļĦåħ¶ä¸Ńä¸Ģç§į": 5855,
      "æĢĢçĸĳ": 5856,
      "æĦıå¤ĸ": 5857,
      "é¦ĸå¸Ń": 5858,
      "åħ¬æĸ¤": 5859,
      "çĶµè½¦": 5860,
      "ä¸¤å¹´": 5861,
      "å¾Īå¤§": 5862,
      "å®¡åĪ¤": 5863,
      "çŃ¾çº¦": 5864,
      "å¹´ä¸ĸçķĮ": 5865,
      "å®°": 5866,
      "æ¯ħ": 5867,
      "éĺ²æŃ¢": 5868,
      "æıĲåıĬ": 5869,
      "è¯¥æĿĳ": 5870,
      "æľ¬äºº": 5871,
      "çļĦç¬¬äºĮ": 5872,
      "å®īçº³": 5873,
      "éķ¿æ²Ļ": 5874,
      "æĭ¨": 5875,
      "è¾Ł": 5876,
      "ore": 5877,
      "éĻĦå±ŀ": 5878,
      "å·ŀåĪºåı²": 5879,
      "æĺŁçŃīä¸º": 5880,
      "æ¯ıå¤©": 5881,
      "æĺ¯åĽłä¸º": 5882,
      "æ¶Īå¤±": 5883,
      "ç§ĳå°Ķ": 5884,
      "èĮħ": 5885,
      "æĽ°": 5886,
      "èĳ£äºĭéķ¿": 5887,
      "èĪŀè¹Ī": 5888,
      "å¸¸åĬ¡": 5889,
      "å¤©åĲİ": 5890,
      "çĶŁæ´»ä¹łæĢ§": 5891,
      "ç©·": 5892,
      "åī¯ä¹¦è®°": 5893,
      "ç¢Ł": 5894,
      "é«ĺè¾¾": 5895,
      "è¾¨": 5896,
      "æĥ¨": 5897,
      "è¿Ļåº§": 5898,
      "é¢ģå¥ĸ": 5899,
      "æī£": 5900,
      "æĹ¶åĢĻ": 5901,
      "æĸĩèīº": 5902,
      "æł¼å°Ķ": 5903,
      "èĭ¹": 5904,
      "åįģä¹Ŀ": 5905,
      "å¤§å°ı": 5906,
      "çĶŁåŃĺ": 5907,
      "ç«ĭåľº": 5908,
      "ä¸¸": 5909,
      "åī§åľº": 5910,
      "è¿ŀä»»": 5911,
      "ith": 5912,
      "åĽĬ": 5913,
      "åĲĦç±»": 5914,
      "è´§çī©": 5915,
      "ÃĹ": 5916,
      "ç¥ŀè¯Ŀ": 5917,
      "æĿ¥è¶Ĭ": 5918,
      "åĮħåĽ´": 5919,
      "åĲ«æľī": 5920,
      "è½¦éĺŁ": 5921,
      "äºīåıĸ": 5922,
      "ä¿ĦåĽ½": 5923,
      "äºĮæĪĺ": 5924,
      "éĽ¾": 5925,
      "æĦıåĳ³": 5926,
      "å»ĸ": 5927,
      "åı¯è§ģ": 5928,
      "æĭ¿ä¸ĭ": 5929,
      "éĴ»": 5930,
      "èģļèĲ½": 5931,
      "Go": 5932,
      "æĸĭ": 5933,
      "ark": 5934,
      "çĽ´éļ¶": 5935,
      "ä»»æľŁ": 5936,
      "ç§įæ¤į": 5937,
      "èĢĲ": 5938,
      "ä¸ŀ": 5939,
      "ä¸ºåħ¶": 5940,
      "éĤĳ": 5941,
      "çĪµå£«": 5942,
      "å¥¹ä»¬": 5943,
      "éĺ¿éĩĮ": 5944,
      "çĽ´å¾Ħ": 5945,
      "å¤©åłĤ": 5946,
      "å½¢å®¹": 5947,
      "çĬ¹å¤ªäºº": 5948,
      "æĬ«": 5949,
      "è¨Ģè®º": 5950,
      "çĻ¾ä¸ĩ": 5951,
      "å¸ĥéĽ·": 5952,
      "å¤¹": 5953,
      "åĲİç»Ń": 5954,
      "æĮģæľī": 5955,
      "ç½Ĺå¾·": 5956,
      "çĤ¹çļĦ": 5957,
      "æ¡ĥåĽŃ": 5958,
      "éĿ¢ä¸´": 5959,
      "çĤ¼": 5960,
      "åįķåħĥ": 5961,
      "äºĴçĽ¸": 5962,
      "çĥ·": 5963,
      "è¶ĬæĿ¥è¶Ĭ": 5964,
      "çļĦéĥ¨åĪĨ": 5965,
      "è±«": 5966,
      "å¼Ģå¹ķ": 5967,
      "ç»´å¤ļ": 5968,
      "ç§¯åĪĨ": 5969,
      "ä½ĵèĤ²åľº": 5970,
      "æĻ®é²ģ": 5971,
      "1933": 5972,
      "||": 5973,
      "è¥Ħ": 5974,
      "æı´åĬ©": 5975,
      "åģ¶åĥı": 5976,
      "æĸ¹ä¾¿": 5977,
      "éĺ¿å°Ķåįĳ": 5978,
      "å¼ĹéĩĮ": 5979,
      "çĶŁæ´»ä¹łæĢ§ä¸įæĺİ": 5980,
      "æ£ķ": 5981,
      "è·¯æĺĵæĸ¯": 5982,
      "è¿Ļé¡¹": 5983,
      "æ²ª": 5984,
      "èĪŁ": 5985,
      "å·´åŁº": 5986,
      "æĹłè®º": 5987,
      "ä¸¤ä¾§": 5988,
      "åĪĻåľ¨": 5989,
      "æŃ¥æŀª": 5990,
      "åĨħéĻĨçľģä»½": 5991,
      "èħº": 5992,
      "é¼ĵåĬ±": 5993,
      "éļĶç¦»": 5994,
      "sh": 5995,
      "æ²³åįĹçľģ": 5996,
      "åĬłåħ¥äºĨ": 5997,
      "æĹ¥äºİ": 5998,
      "éķ¿è¾¾": 5999,
      "æ²³çļĦ": 6000,
      "èĭ±éĩĮ": 6001,
      "åıĳæĮ¥": 6002,
      "éĻ·åħ¥": 6003,
      "èĭıéĩĮ": 6004,
      "ç¾İåĽ½çļĦ": 6005,
      "è·¯æ®µ": 6006,
      "çº§åĪ«": 6007,
      "è§ĦèĮĥ": 6008,
      "éĢĶä¸Ń": 6009,
      "çĪ±æĥħ": 6010,
      "æģŃ": 6011,
      "åŃ¦çļĦ": 6012,
      "å¾·åĨĽ": 6013,
      "åĨħèĴĻåı¤": 6014,
      "è¶³å¤Ł": 6015,
      "å¥ĭ": 6016,
      "1928": 6017,
      "æŃĮè¯į": 6018,
      "åĪ¶çīĩ": 6019,
      "çĻ»åľº": 6020,
      "éĺ¿å°Ķåįĳæĸ¯": 6021,
      "çº¿ä¸Ĭ": 6022,
      "æĪĲå°±": 6023,
      "é¾Ļæ±Ł": 6024,
      "äºĶä¸ª": 6025,
      "æľĪåľ¨": 6026,
      "ä¸¤ä½į": 6027,
      "è¶³çĲĥéĺŁ": 6028,
      "å¤©æĸĩåı°": 6029,
      "é¡ºåĪ©": 6030,
      "åĨłçĬ¶çĹħæ¯Ĵ": 6031,
      "è¾¹ç¼ĺ": 6032,
      "æ²¿éĿ©": 6033,
      "åľ¨ä¸Ģèµ·": 6034,
      "çĪ±å¾·åįİ": 6035,
      "éĥģ": 6036,
      "èĵĿèī²": 6037,
      "éĢļçŁ¥": 6038,
      "çļĦæĢ»": 6039,
      "éĢıéľ²": 6040,
      "ç¦ıå»ºçľģ": 6041,
      "æ¡£æ¡Ī": 6042,
      "éĽį": 6043,
      "èĹ»": 6044,
      "èįĨ": 6045,
      "ä½įäºİè¯¥": 6046,
      "è¾ŀèģĮ": 6047,
      "è¯¥åħ¬åı¸": 6048,
      "éĩĳå±±": 6049,
      "å¸ĥæľĹ": 6050,
      "æĺ¯ä¸º": 6051,
      "äººæ¬¡": 6052,
      "èľľ": 6053,
      "ä¸»ä¹īçļĦ": 6054,
      "è¶ħè¶Ĭ": 6055,
      "èħĶ": 6056,
      "çĲĨæĥ³": 6057,
      "é¢ģåıĳ": 6058,
      "äººæ°ĳå¸ģ": 6059,
      "ä½¿åħ¶": 6060,
      "åķ¡": 6061,
      "çĿ¡": 6062,
      "åıĳçĶŁåľ¨": 6063,
      "1932": 6064,
      "èĢģå¸Ī": 6065,
      "æľĪèµ·": 6066,
      "å¿ĺ": 6067,
      "ä»ĸä»¬åľ¨": 6068,
      "æĭ±": 6069,
      "åħ¬å¼ĢèµĽ": 6070,
      "èµ«å°Ķ": 6071,
      "èĥĨ": 6072,
      "å¹¶è¢«": 6073,
      "åľ°åĲį": 6074,
      "åľĨå½¢": 6075,
      "çī¹åĭĴ": 6076,
      "ãĢĤãĢĤ": 6077,
      "åĻ¨çļĦ": 6078,
      "é³ŀ": 6079,
      "åĬłéĢŁ": 6080,
      "çĽ´æĴŃ": 6081,
      "åıĺä¸º": 6082,
      "åº§æłĩä¸º": 6083,
      "ver": 6084,
      "åģľéĿł": 6085,
      "è´¹çĶ¨": 6086,
      "å¤ļå°Ķ": 6087,
      "ä¸¾åĬŀçļĦ": 6088,
      "odice": 6089,
      "åĨĻä½ľ": 6090,
      "cn": 6091,
      "å·´èµ«": 6092,
      "æĸ¯æ´Ľ": 6093,
      "è°¦": 6094,
      "ç¿ħ": 6095,
      "åı¦ä¸Ģæĸ¹éĿ¢": 6096,
      "ä¸¥æł¼": 6097,
      "çĻ»è®°": 6098,
      "å¹³è¡¡": 6099,
      "éĥ½åľ¨": 6100,
      "æĶ¶åĪ°": 6101,
      "çļĦä½įç½®": 6102,
      "ä¸ºä¸ŃåĽ½": 6103,
      "çļĦåİŁåĽł": 6104,
      "æĸ°ç«¹": 6105,
      "çĲĨå·¥": 6106,
      "æĺ¯åı°æ¹¾": 6107,
      "çļĦè§Ĵèī²": 6108,
      "æ¯ıæĹ¥": 6109,
      "ox": 6110,
      "çĶ°å¾Ħ": 6111,
      "è´¢äº§": 6112,
      "ED": 6113,
      "å¸Ĩ": 6114,
      "è¡Įä¸ļ": 6115,
      "é»Ħèī²": 6116,
      "ä»¥ä¸ĬçļĦ": 6117,
      "An": 6118,
      "ä¸İæŃ¤": 6119,
      "éĤª": 6120,
      "æīĭæ®µ": 6121,
      "æĬ¥çº¸": 6122,
      "çļĦå½¢å¼ı": 6123,
      "äººæ°ĳä»£è¡¨å¤§ä¼ļ": 6124,
      "åįļå£«åŃ¦ä½į": 6125,
      "è·¯åı£": 6126,
      "éķĩä¸ĭè¾ĸä»¥ä¸ĭåľ°åĮº": 6127,
      "åĪĽå§ĭ": 6128,
      "éĢļä¿¡": 6129,
      "æ¸¸è¡Į": 6130,
      "æĹ¥å¼Ģå§ĭ": 6131,
      "æłĩæľ¬": 6132,
      "æºĥ": 6133,
      "èº«åĪĨ": 6134,
      "çļĦåĦ¿åŃĲ": 6135,
      "çļĦè¯Ŀ": 6136,
      "æĢķ": 6137,
      "è¥¿ä¾§": 6138,
      "æİ¨èįĲ": 6139,
      "è¥¿æĸ¯": 6140,
      "ä¼¼ä¹İ": 6141,
      "å¸Ĳ": 6142,
      "åĺīä¹ī": 6143,
      "æŃ£éĿ¢": 6144,
      "åĬłåĪ©ç¦ıå°¼äºļå·ŀ": 6145,
      "æľ¬å±Ĭ": 6146,
      "ä¸»æĮģäºº": 6147,
      "èĤł": 6148,
      "è¯ģåĪ¸": 6149,
      "åºĨç¥Ŀ": 6150,
      "æ£ī": 6151,
      "è¯±": 6152,
      "å¡ŀçº³": 6153,
      "åĽŀå¿Ĩ": 6154,
      "æī§æĶ¿": 6155,
      "æ¦Ħ": 6156,
      "é¢Ħç®Ĺ": 6157,
      "æ²³éģĵ": 6158,
      "å¼ĹéĽ·": 6159,
      "åŁ¹è®Ń": 6160,
      "åº¦çļĦ": 6161,
      "å½ĵæĹ¥": 6162,
      "æĸ©": 6163,
      "æķĪåºĶ": 6164,
      "æ²ĥå°Ķ": 6165,
      "ä¸ĭä¸Ģ": 6166,
      "åħĭæŀĹ": 6167,
      "è¶³çĲĥä¿±ä¹Ĳéĥ¨": 6168,
      "åĢ¾åĲĳ": 6169,
      "æ¡Ĩ": 6170,
      "çĥ¯": 6171,
      "æ¸ł": 6172,
      "æ¸Ĭ": 6173,
      "æĳ©å°Ķ": 6174,
      "èĪªå¤©": 6175,
      "åķĨåľº": 6176,
      "å¤ļäºº": 6177,
      "æĹ¥åĲİ": 6178,
      "ä¼ļæľī": 6179,
      "è¾Ĳå°Ħ": 6180,
      "AS": 6181,
      "è¯¥çīĩ": 6182,
      "åĲ»": 6183,
      "å¹³æ°ĳ": 6184,
      "ç§°åĳ¼": 6185,
      "ube": 6186,
      "çļĦæĥħ": 6187,
      "è§īå¾Ĺ": 6188,
      "æł½åŁ¹": 6189,
      "é¡·": 6190,
      "é¸Ń": 6191,
      "åĮºéĹ´": 6192,
      "çĩĥæĸĻ": 6193,
      "ç©´": 6194,
      "éħįå¤ĩ": 6195,
      "åį¡ç½Ĺ": 6196,
      "ä»¥ä¾¿": 6197,
      "å·²çŁ¥": 6198,
      "é¦ĸä½į": 6199,
      "NBA": 6200,
      "çļĦåĲįåŃĹ": 6201,
      "PS": 6202,
      "å½¢çĬ¶": 6203,
      "æ´¾çļĦ": 6204,
      "ç´¯è®¡": 6205,
      "èĢķ": 6206,
      "æĽ¾ç¥ĸ": 6207,
      "ug": 6208,
      "åıªè¦ģ": 6209,
      "ook": 6210,
      "äºļåĨĽ": 6211,
      "é¢ĳçİĩ": 6212,
      "çĢ": 6213,
      "ç¨Ģ": 6214,
      "ä»ħæľī": 6215,
      "éªļ": 6216,
      "ä¸īäºº": 6217,
      "ä»ĬæĹ¥": 6218,
      "æ¼ı": 6219,
      "æķ°ä½į": 6220,
      "æī©å¼ł": 6221,
      "å¡ŀå°Ķç»´äºļ": 6222,
      "å±±åİ¿": 6223,
      "çļĦæĿĳåºĦ": 6224,
      "åĪĹåĩº": 6225,
      "MV": 6226,
      "èĲ½æĪĲ": 6227,
      "ric": 6228,
      "å°Ĩäºİ": 6229,
      "åĲ¸æĶ¶": 6230,
      "æł¼åĭĴ": 6231,
      "è¯ºä¼Ĭ": 6232,
      "æĸ¯æīĺ": 6233,
      "æĺ¾èĳĹ": 6234,
      "æĺŁç³»": 6235,
      "åŁ¹åħ»": 6236,
      "ç¢±": 6237,
      "1934": 6238,
      "åĨķ": 6239,
      "çī¹åĮº": 6240,
      "åıĳè¡ĮçļĦ": 6241,
      "åĨħåľ°": 6242,
      "æīĭæľ¯": 6243,
      "æ¨¡æĭŁ": 6244,
      "ç½Ĺä¼¯çī¹": 6245,
      "1927": 6246,
      "æİ¥ä»»": 6247,
      "çŁŃæļĤ": 6248,
      "éĤ±": 6249,
      "1931": 6250,
      "çº¦çĳŁ": 6251,
      "Ġfor": 6252,
      "å¸ĤæĶ¿": 6253,
      "äº«å¹´": 6254,
      "æłĹ": 6255,
      "æĹ¶æĬ¥": 6256,
      "è´§è¿Ĳ": 6257,
      "æĿĳèĲ½": 6258,
      "è°Ĭ": 6259,
      "èį¡": 6260,
      "ç±³äºļ": 6261,
      "åĮºè®®ä¼ļ": 6262,
      "å¾Ĺä¸»": 6263,
      "èĪĮ": 6264,
      "åįĹæŀģæ´²": 6265,
      "äºĶåįģ": 6266,
      "åĪĨå¸ĥåľ¨": 6267,
      "æļĤæĹ¶": 6268,
      "èĭ¹æŀľ": 6269,
      "å®£ç§°": 6270,
      "are": 6271,
      "æĸĹäºī": 6272,
      "æķĻèĤ²éĥ¨": 6273,
      "å·´åŁºæĸ¯åĿ¦": 6274,
      "æŃ£ç¡®": 6275,
      "ä¸Ĭéĺµ": 6276,
      "å¤©æ°Ķ": 6277,
      "æ¼ł": 6278,
      "ï¼Įï¼īï¼Į": 6279,
      "700": 6280,
      "åĲİäºİ": 6281,
      "æ¸¸å®¢": 6282,
      "ä¸»åľº": 6283,
      "å©´": 6284,
      "åĲİè¢«": 6285,
      "æĦıæĢĿ": 6286,
      "è®¸åı¯": 6287,
      "ä¸įè¦ģ": 6288,
      "çĥŃå¸¦æ°ĶæĹĭ": 6289,
      "èĸĩ": 6290,
      "è½¬çļĦ": 6291,
      "éĿŀæ³ķ": 6292,
      "ä¼ļè¯ķ": 6293,
      "åĲĮæĹ¥": 6294,
      "èĸª": 6295,
      "è¾ħåĬ©": 6296,
      "è®¾è®¡çļĦ": 6297,
      "å¤§èģĶçĽŁ": 6298,
      "æıĲè®®": 6299,
      "æĶ¹åĪ¶ä¸º": 6300,
      "ä¸ŃæľĢ": 6301,
      "æİ©": 6302,
      "ä¸ľä¾§": 6303,
      "åħ¶ä¸Ńä¸Ģä¸ª": 6304,
      "æīĵçł´": 6305,
      "çĽ¸åĲĮçļĦ": 6306,
      "æĸ¥": 6307,
      "æµ·åįĹ": 6308,
      "å·¥ä¼ļ": 6309,
      "ç»ĪçĤ¹": 6310,
      "æİł": 6311,
      "ä»İæŃ¤": 6312,
      "æ¸¸åĩ»": 6313,
      "ord": 6314,
      "ect": 6315,
      "åĬ²": 6316,
      "åįģæľĪ": 6317,
      "åĪ¶ä½ľçļĦ": 6318,
      "çī¹åħ°": 6319,
      "èģļéĽĨ": 6320,
      "å§ĳ": 6321,
      "åŃ¦ç§ĳ": 6322,
      "å··": 6323,
      "è®¼": 6324,
      "Ġ5": 6325,
      "ä¼łæķĻ": 6326,
      "åıĤæķ°": 6327,
      "å¯»æ±Ĥ": 6328,
      "æĸ¹éĿ¢çļĦ": 6329,
      "1918": 6330,
      "æĵħ": 6331,
      "çłĶç©¶éĻ¢": 6332,
      "åģļåĩº": 6333,
      "å¤§ä½¿é¦Ĩ": 6334,
      "æķĮäºº": 6335,
      "å¾·æĦıå¿Ĺ": 6336,
      "åĲĮæĹ¶ä¹Ł": 6337,
      "é©¬ä¸ģ": 6338,
      "çĲĨçĶ±": 6339,
      "ç«ŀèµĽ": 6340,
      "æ£ĴçĲĥ": 6341,
      "åı¤èĢģ": 6342,
      "éģ¥": 6343,
      "å¸¸å§Ķ": 6344,
      "åįķçĭ¬": 6345,
      "èģĶç½ĳ": 6346,
      "éĽĨåĲĪ": 6347,
      "éĹ»åĲį": 6348,
      "æĽ¿ä»£": 6349,
      "å¸½": 6350,
      "åĪł": 6351,
      "äº¤æ±ĩ": 6352,
      "ç¹ģæ®ĸ": 6353,
      "é£ŁçĶ¨": 6354,
      "æ¼ĶåĮĸ": 6355,
      "çĵ¶": 6356,
      "int": 6357,
      "æķĳæı´": 6358,
      "æľŃ": 6359,
      "æŃ¦å¸Ŀ": 6360,
      "åĽ½éģĵ": 6361,
      "åķĨäºº": 6362,
      "æľªæľī": 6363,
      "pe": 6364,
      "âĢĿï¼ī": 6365,
      "æķĻå®Ĺ": 6366,
      "âĨ": 6367,
      "è½¦åİ¢": 6368,
      "åİŁåħĪ": 6369,
      "ä½İäºİ": 6370,
      "æķĪåĬĽäºİ": 6371,
      "ç±»çļĦ": 6372,
      "åĩºåľº": 6373,
      "å¤§å¤«": 6374,
      "å±łæĿĢ": 6375,
      "åĽ¾åĥı": 6376,
      "å¡Ķå°Ķ": 6377,
      "ç«ĻçļĦ": 6378,
      "æīĢåľ¨åľ°": 6379,
      "ä¼¯çĪµ": 6380,
      "æľīèĳĹ": 6381,
      "å·¨å¤§": 6382,
      "ä¼ļè¢«": 6383,
      "çº§èģĶèµĽ": 6384,
      "èĥľåĩº": 6385,
      "æĳĩæ»ļ": 6386,
      "å§Ķæīĺ": 6387,
      "åĨĢ": 6388,
      "åŃĲå¥³": 6389,
      "æĴŀåĩ»": 6390,
      "è½¯ä½ĵ": 6391,
      "æļĤåģľ": 6392,
      "èģª": 6393,
      "åĴĸåķ¡": 6394,
      "è¿½æº¯": 6395,
      "ç¾¤ä¼Ĺ": 6396,
      "åĲĪæ³ķ": 6397,
      "ib": 6398,
      "æ³ķè¯Ń": 6399
    },
    "merges": [
      "ï ¼",
      "ä ¸",
      "ã Ģ",
      "ï¼ Į",
      "ä º",
      "ç ļ",
      "çļ Ħ",
      "ãĢ Ĥ",
      "å ħ",
      "å ı",
      "æ ľ",
      "å ¹",
      "ä »",
      "å ¤",
      "å ľ",
      "å Ī",
      "å Ĳ",
      "å Ľ",
      "å ®",
      "å¹ ´",
      "ä ½",
      "æ Ĺ",
      "ç Ķ",
      "å į",
      "æ ĸ",
      "è ¿",
      "æ ĺ",
      "å °",
      "ä ¹",
      "ãĢ ģ",
      "ç »",
      "åľ ¨",
      "ä¸ º",
      "å Ĭ",
      "ä¸ Ģ",
      "å Į",
      "å Ń",
      "ä ¼",
      "æ Ī",
      "å ¸",
      "åĽ ½",
      "è ¯",
      "ä¸ Ń",
      "å Ĩ",
      "è ®",
      "äº º",
      "æĺ ¯",
      "å º",
      "æ Ŀ",
      "ï¼ Ī",
      "ï¼ ī",
      "å ·",
      "å ¼",
      "å ¾",
      "é ĩ",
      "äº İ",
      "è ¡",
      "ç ī",
      "ç §",
      "ç º",
      "å ±",
      "å¤ §",
      "æ Ķ",
      "æ ī",
      "æľ ī",
      "å ĩ",
      "é Ģ",
      "å Ĵ",
      "åĴ Į",
      "2 0",
      "æ Ń",
      "é ĥ",
      "è Ģ",
      "å İ",
      "è µ",
      "æ °",
      "æ ķ",
      "å ½",
      "æľ Ī",
      "é Ļ",
      "å ¯",
      "æ ĭ",
      "æĹ ¥",
      "ç Ľ",
      "è ĩ",
      "å ¥",
      "æ ³",
      "ä» ¥",
      "é ĺ",
      "ç İ",
      "æ ł",
      "1 9",
      "â Ģ",
      "åĲ İ",
      "å ĳ",
      "æĹ ¶",
      "æ ²",
      "äº Ĩ",
      "æ µ",
      "åľ °",
      "ç «",
      "åŃ ¦",
      "è ¾",
      "ä¼ ļ",
      "è §",
      "æ Ģ",
      "è ´",
      "ä¸ ª",
      "é Ĺ",
      "è ½",
      "æĪ Ĳ",
      "é ķ",
      "å Ł",
      "é Ŀ",
      "æĸ ¯",
      "è¡ Į",
      "ä¸ Ĭ",
      "åĮ º",
      "å ī",
      "ç Ĳ",
      "éĥ ¨",
      "åĩ º",
      "ä» ĸ",
      "æ ¯",
      "æ ŀ",
      "åħ ¬",
      "æ ´",
      "ä¸ į",
      "ä¸ İ",
      "æ Ĭ",
      "æ İ",
      "å° Ķ",
      "ç ¬",
      "çĶ Ł",
      "æ ¸",
      "ç ½",
      "æ Ľ",
      "åı ĳ",
      "åĲ į",
      "åħ ¶",
      "ä½ ľ",
      "ä¸ »",
      "ä ¿",
      "é ģ",
      "ä¹ ĭ",
      "ç Ń",
      "åĪ Ĩ",
      "è ĥ",
      "è ¢",
      "ç¬ ¬",
      "æĸ ¹",
      "è ¥",
      "å® ¶",
      "è¥ ¿",
      "å §",
      "çĶ ¨",
      "ãĢ Ĭ",
      "ãĢ ĭ",
      "Â ·",
      "ä¸ ĭ",
      "åĪ °",
      "æ³ ķ",
      "å ¿",
      "ç ¾",
      "æĶ ¿",
      "å¹ ¶",
      "æ ¬",
      "å »",
      "èĢ Į",
      "åĨ Ľ",
      "ä½ į",
      "ç ľ",
      "å¸ Ĥ",
      "é ¢",
      "åı Ĭ",
      "ä ¾",
      "æ Į",
      "æ ±",
      "è¢ «",
      "è ·",
      "æ° ĳ",
      "çĶ ±",
      "é Ľ",
      "æľ ¬",
      "ç ±",
      "é ¦",
      "è ĭ",
      "å ĵ",
      "éĩ Į",
      "éķ ¿",
      "çī ¹",
      "åĲ Į",
      "åĬ ¨",
      "å¯ ¹",
      "åį Ĺ",
      "æĿ ¥",
      "é ©",
      "è ģ",
      "åħ ĭ",
      "è¿ Ļ",
      "å¤ ļ",
      "ä» »",
      "åı ¯",
      "å¼ Ģ",
      "åŃ Ĳ",
      "åĳ ĺ",
      "èĩ ª",
      "å¾ ·",
      "åĬ ł",
      "æĸ °",
      "å¹ ³",
      "å Ŀ",
      "åĮ Ĺ",
      "è İ",
      "ä¸ ľ",
      "è ī",
      "æĸ ĩ",
      "å £",
      "åĪ ©",
      "é «",
      "æľ Ģ",
      "æµ ·",
      "ãĢ Į",
      "ãĢ į",
      "æ Ļ",
      "é« ĺ",
      "ï¼ ļ",
      "äº ļ",
      "åī į",
      "ä» £",
      "ç¾ İ",
      "åı °",
      "æī Ģ",
      "¦ ģ",
      "20 1",
      "å» º",
      "å¾ Ĺ",
      "çī ©",
      "ç ¤",
      "éĿ ¢",
      "åĨ ħ",
      "èĩ ³",
      "ä¸ ī",
      "çĶ µ",
      "è½ ¦",
      "äº ĭ",
      "âĢ ľ",
      "âĢ Ŀ",
      "åĽ ł",
      "è¿ Ľ",
      "æŃ ¤",
      "è Ī",
      "ä¹ Ł",
      "éĹ ´",
      "éģ ĵ",
      "çİ °",
      "ç» ı",
      "è¿ ĩ",
      "çŃ ī",
      "èµ Ľ",
      "åº ¦",
      "ï¼ī ï¼Į",
      "æĭ ī",
      "è ¦ģ",
      "åħ ¥",
      "å ²",
      "å½ ĵ",
      "è¡ ¨",
      "ç Ł",
      "æľ º",
      "è¯ ¥",
      "ç ¥",
      "ç« ĭ",
      "çĲ Ĩ",
      "è· ¯",
      "ç ©",
      "ç ķ",
      "å° Ĩ",
      "é ¡",
      "ä½ ĵ",
      "æĪ ĺ",
      "è °",
      "å ¦",
      "è Ĳ",
      "çľ ģ",
      "å· ŀ",
      "é ļ",
      "ä¸Ģ ä¸ª",
      "æľ Ł",
      "å· ¥",
      "äº Į",
      "é© ¬",
      "ç ®",
      "åı £",
      "åĲ Ī",
      "ä¸ ĸ",
      "æķ Ļ",
      "å± ±",
      "èĥ ½",
      "å¤ ĸ",
      "å¸ ĥ",
      "åĪ ¶",
      "20 0",
      "æ ı",
      "å® ļ",
      "å° ı",
      "æ į",
      "é ĵ",
      "æ Ħ",
      "è Ĭ",
      "æ¬ ¡",
      "åħ ±",
      "éĢ ļ",
      "ä¸ ļ",
      "ç§ ĳ",
      "è® ¾",
      "è ¶",
      "ç§ į",
      "åľ º",
      "éĺ Ł",
      "æ ĥ",
      "åħ ¨",
      "åĮ ĸ",
      "ç ³",
      "ä½ Ĩ",
      "ä½ ¿",
      "çĲ ĥ",
      "èĢ ħ",
      "é £",
      "åį ģ",
      "ç« Ļ",
      "æĢ §",
      "çº ¿",
      "å¤ ©",
      "æķ °",
      "è Ĥ",
      "ç½ Ĺ",
      "æ Ł",
      "ç Ļ",
      "ç§ °",
      "ç ł",
      "é Ł",
      "å® ī",
      "å¼ ı",
      "æ ģ",
      "é Ĥ",
      "åİ ¿",
      "éĩ į",
      "ç ¼",
      "è¿ Ĳ",
      "ç³ »",
      "æ¯ Ķ",
      "æ ¡",
      "èģ Ķ",
      "ç± ³",
      "æĢ »",
      "1 0",
      "æ ¼",
      "å± ŀ",
      "æ ¹",
      "ä¸ ¤",
      "ç Ī",
      "ç ¨",
      "ç Ĥ",
      "ç ¦",
      "å ¢",
      "ä¸Ń åĽ½",
      "éĢ ī",
      "éĻ ¢",
      "åŁ º",
      "åĬ Ľ",
      "åŁ İ",
      "å£ «",
      "éĥ ½",
      "æ² »",
      "ï¼ Ľ",
      "åħ °",
      "çĽ ¸",
      "åİ Ł",
      "åħ ³",
      "è¾ ¾",
      "æł ¼",
      "å° ¼",
      "å ¡",
      "éķ ĩ",
      "å ģ",
      "åı ·",
      "æ° ´",
      "é »",
      "æĺ İ",
      "ç» Ħ",
      "ç» Ł",
      "èµ ·",
      "åı ¸",
      "å½ ±",
      "çº ¦",
      "èĭ ±",
      "æŃ £",
      "åº ľ",
      "çĽ ®",
      "éĩ ĳ",
      "åį İ",
      "çİ ĭ",
      "éĺ ¿",
      "åĪ Ĺ",
      "æİ ¥",
      "è® ¡",
      "æĪ ĸ",
      "ä» ¬",
      "å· ´",
      "è® ®",
      "é¦ ĸ",
      "0 0",
      "åĽ Ľ",
      "æı Ĳ",
      "ç ģ",
      "ç Ħ",
      "åħ ĥ",
      "è ĳ",
      "ä» İ",
      "æ¼ Ķ",
      "è į",
      "äº §",
      "å ŀ",
      "å¥ ³",
      "ç¾İ åĽ½",
      "æŀ Ĺ",
      "å¦ Ĥ",
      "é ħ",
      "éĩ ı",
      "æ ¶",
      "å Ģ",
      "åı Ĥ",
      "æĶ ¹",
      "æ ®",
      "æ¸ ¯",
      "å¸ ¸",
      "åı ²",
      "è¯ Ń",
      "åĬ ¡",
      "åĮ ħ",
      "é Ķ",
      "åĲ ĳ",
      "1 8",
      "äºº åı£",
      "äº ¤",
      "å Ķ",
      "å¿ ĥ",
      "çº §",
      "ä¹ Ĳ",
      "æĹ ł",
      "é ľ",
      "æĽ ¾",
      "è £",
      "1 2",
      "ä½į äºİ",
      "çĦ ¶",
      "ç» ´",
      "å® ŀ",
      "èİ ·",
      "å ¨",
      "æĮ ĩ",
      "æĦ ı",
      "åı Ĺ",
      "ä¿ Ŀ",
      "æ Ĵ",
      "å§ Ķ",
      "åĽ ¢",
      "åİ Ĩ",
      "æ² ³",
      "ä¹ ī",
      "ç» ĵ",
      "æ £",
      "çķ Į",
      "å§ ĭ",
      "ç ´",
      "æĺ Ł",
      "ä¹ ¦",
      "ç¨ ĭ",
      "åį ¡",
      "èī ²",
      "æī ĭ",
      "è§ Ĩ",
      "åį ķ",
      "å¤ Ħ",
      "ç® ¡",
      "å ĭ",
      "å° ±",
      "åĪ Ļ",
      "ç ĥ",
      "å¹ ¿",
      "æ ·",
      "åħ ļ",
      "éĹ ¨",
      "ç± »",
      "å½ ¢",
      "å¥ ¥",
      "éŁ ³",
      "é ²",
      "å¯ ¼",
      "é Ĵ",
      "åŀ ĭ",
      "æµ ģ",
      "è¯ ´",
      "è® ¤",
      "çĽ ´",
      "ç¤ ¾",
      "å· ²",
      "ï¼ī ãĢĤ",
      "e r",
      "éĽ Ĩ",
      "åº Ķ",
      "å ł",
      "å¤ «",
      "æį ®",
      "ä¼ ł",
      "äº Ľ",
      "1 1",
      "æ º",
      "åĵ ģ",
      "çĤ ¹",
      "a n",
      "é¢ Ĩ",
      "ä¸ ĩ",
      "è º",
      "è Į",
      "æ ¢",
      "æł ¡",
      "åĽ ŀ",
      "æ¹ ¾",
      "ç ĭ",
      "å± ķ",
      "æĮ ģ",
      "æĽ ´",
      "éĵ ģ",
      "ç¤ º",
      "19 9",
      "é¦ Ļ",
      "ä¸ ¾",
      "é ¾",
      "ç§ ¯",
      "äº Ķ",
      "ç© º",
      "æĶ¿ åºľ",
      "è Ĵ",
      "æ »",
      "æĥ ħ",
      "æĻ ®",
      "èº «",
      "æĬ ¥",
      "å¤§ åŃ¦",
      "å¸ Ī",
      "åı į",
      "è¿ ĺ",
      "çº ³",
      "é ª",
      "å® ĺ",
      "èµ Ħ",
      "å¤ ª",
      "çº ª",
      "è Ļ",
      "åľ° åĮº",
      "åı ¤",
      "ç ı",
      "æ´ »",
      "åĪ «",
      "åħ¬ åı¸",
      "åĲ Ħ",
      "å² Ľ",
      "æ¸ ¸",
      "ç ¡",
      "ç ĸ",
      "i n",
      "å± Ģ",
      "åı¯ ä»¥",
      "ï¼Ī ï¼ī",
      "o r",
      "æĶ ¯",
      "ä½¿ çĶ¨",
      "éĢ ł",
      "æ± Ł",
      "åĩ »",
      "åŃ Ĺ",
      "å ķ",
      "åı ĸ",
      "åı ĺ",
      "åī §",
      "åĳ ½",
      "ä¸ ĵ",
      "20 2",
      "å¼ ł",
      "æĹ¥ æľ¬",
      "æĭ ¬",
      "å¸ ¦",
      "æł ĩ",
      "åĽ½ å®¶",
      "ç Ĭ",
      "ç ĵ",
      "ç Ĺ",
      "æĹ ı",
      "o n",
      "æĪĲ ä¸º",
      "æ´ ²",
      "ä¼ Ĭ",
      "æĽ ²",
      "ç Ŀ",
      "åĮħ æĭ¬",
      "å¼Ģ å§ĭ",
      "åĪ Ĵ",
      "æľ ¯",
      "æľ Ŀ",
      "èĭ ı",
      "é£ İ",
      "å¥ ¹",
      "éĿ ŀ",
      "è¿ ĳ",
      "èĬ Ĥ",
      "ä» ¶",
      "è§ £",
      "å° ĳ",
      "èĳ Ĺ",
      "çł Ķ",
      "ç ²",
      "åĽ ¾",
      "è Ħ",
      "äº ¬",
      "1 5",
      "åĨ ³",
      "ç¼ ĸ",
      "è® º",
      "ä¿ ¡",
      "åı ª",
      "è® °",
      "éĻ ħ",
      "æ² ¡",
      "åħ¬ éĩĮ",
      "åį ³",
      "å® ĥ",
      "çī ĩ",
      "ç ¿",
      "çŁ ³",
      "æĶ ¾",
      "æł ¹",
      "æ° Ķ",
      "è¿Ľ è¡Į",
      "èģ Į",
      "å¹³ æĸ¹",
      "æĿ ĥ",
      "ç¬¬ ä¸Ģ",
      "ä»¥ åıĬ",
      "ç¥ ŀ",
      "é¾ Ļ",
      "æ³ ¢",
      "è½ ¬",
      "é¦Ļ æ¸¯",
      "çļĦ ä¸Ģ",
      "ä¾ ĭ",
      "æľ ª",
      "æĿ ¡",
      "æ¯ ı",
      "è§ Ĵ",
      "æĶ ¶",
      "åħ ī",
      "åħ¶ ä¸Ń",
      "æĿ ĳ",
      "åķ Ĩ",
      "å Ļ",
      "è¿ ŀ",
      "æ¸ ħ",
      "æ ĳ",
      "éĻ Ĩ",
      "å ĸ",
      "çī Ī",
      "åĳ ¨",
      "çļĦ ä¸Ģä¸ª",
      "äºº æ°ĳ",
      "æ ¨",
      "ç¦ »",
      "æŃ Į",
      "è° ĥ",
      "è ±",
      "åŃ £",
      "å¯ Ĩ",
      "å¤ ´",
      "åĪ Ľ",
      "çŁ ¥",
      "åĪ Ŀ",
      "åı° æ¹¾",
      "åı Ī",
      "æŃ ¦",
      "éĥ¨ åĪĨ",
      "ä» ¤",
      "å¾ Ģ",
      "ç© ¶",
      "19 8",
      "åĬ ŀ",
      "åº §",
      "åħ Ī",
      "åİ »",
      "éĿ¢ ç§¯",
      "1 6",
      "ä¸ĸ çķĮ",
      "å¡ Ķ",
      "æŁ ¥",
      "çĻ ½",
      "æŀ Ħ",
      "èİ· å¾Ĺ",
      "æŀ ľ",
      "æī ĵ",
      "ç¦ ı",
      "åĨ į",
      "å¤ į",
      "å¼ º",
      "ä¸» è¦ģ",
      "åŁ Ł",
      "çłĶ ç©¶",
      "åĻ ¨",
      "çĵ ¦",
      "åħ µ",
      "åħ Ń",
      "ä»ĸ ä»¬",
      "äº ī",
      "æĿ İ",
      "æ´ ¾",
      "éļ ı",
      "1 7",
      "ç» Ń",
      "åľ £",
      "å¨ ģ",
      "æ® µ",
      "a r",
      "è§ Ĥ",
      "æĴ Ń",
      "æ²¡ æľī",
      "æ ļ",
      "å® Į",
      "å± ħ",
      "ç ĳ",
      "åİĨ åı²",
      "ä¹ ¡",
      "è¶ ³",
      "é¢ ĺ",
      "ç½ ĳ",
      "èĤ ²",
      "å¼ ķ",
      "è£ ħ",
      "è ı",
      "èĲ ¨",
      "å® £",
      "é¡ ¹",
      "è®¤ ä¸º",
      "Ġ (",
      "æ¬ §",
      "å¥ ĸ",
      "è¿Ĳ åĬ¨",
      "åį ı",
      "éĻ ¤",
      "èĲ ¥",
      "åĭ Ĵ",
      "è® ¸",
      "éĽ ·",
      "ä¸ Ķ",
      "ä» ½",
      "æľ į",
      "åľ Ł",
      "çĶ ·",
      "æĭ ħ",
      "e n",
      "åħ¶ ä»ĸ",
      "æĺ¯ ä¸Ģ",
      "ä»£ è¡¨",
      "è§ Ħ",
      "å§Ķ åĳĺ",
      "æ´ Ľ",
      "å¸ Į",
      "åĵ Ī",
      "è´ ¨",
      "äº ¦",
      "ç» Ī",
      "äº ²",
      "ç½ ®",
      "æ³ķ åĽ½",
      "éĹ ®",
      "æĬ ¤",
      "ç» Ļ",
      "ä» Ĭ",
      "æ± ī",
      "ç¬¬ äºĮ",
      "åĽ Ń",
      "å½ ķ",
      "è¡Į æĶ¿",
      "æ¡ Ī",
      "æİ ¨",
      "æº Ĳ",
      "é¦ Ĩ",
      "éĢ Ł",
      "ä¿ ®",
      "1 4",
      "è ¨",
      "l a",
      "æ ¥",
      "æĶ¿ æ²»",
      "éĺ ³",
      "è¨ Ģ",
      "å¸ Ŀ",
      "åŃ ĺ",
      "çĪ ±",
      "ï¼Ī ï¼īï¼Į",
      "æĪ ı",
      "3 0",
      "å¢ ĥ",
      "å¢ ŀ",
      "ä¾ Ľ",
      "è Ĺ",
      "è¯ Ħ",
      "å Ħ",
      "åħ «",
      "çĶ± äºİ",
      "æŃ »",
      "åį «",
      "åĬ Ł",
      "çĶµ å½±",
      "è¶ ħ",
      "æĬ ķ",
      "èİ ±",
      "åħ ·",
      "å® Ĺ",
      "åĲ ī",
      "è¾ ĥ",
      "åį ļ",
      "è§ ģ",
      "åį ĥ",
      "çĶ »",
      "è¾ ¹",
      "æ± Ĥ",
      "ä¼ ¦",
      "çİ ĩ",
      "èĬ ±",
      "å® ¢",
      "è¯ º",
      "ä¼ ¯",
      "èĩ ´",
      "åĩ Ĩ",
      "åĿ ĩ",
      "åı ¦",
      "é» Ħ",
      "è¾ ĸ",
      "åĬ ©",
      "åį ĩ",
      "å·¥ ä½ľ",
      "ç Į",
      "å¥ ½",
      "æĪ ĳ",
      "çĹ ħ",
      "åį °",
      "æµ İ",
      "åī ¯",
      "19 4",
      "å¤ ĩ",
      "åĳ Ĭ",
      "é ¥",
      "åĽ½ éĻħ",
      "æķ ħ",
      "å¾ Ī",
      "å ĥ",
      "çı Ń",
      "ç ª",
      "å¡ ŀ",
      "è¯ ķ",
      "æł ·",
      "åĽł æŃ¤",
      "1 3",
      "çİ ¯",
      "èĪ ª",
      "æĹ ©",
      "ä¼ Ĺ",
      "é² ģ",
      "åĮ »",
      "æİ Ĵ",
      "ä¸Ń å¿ĥ",
      "åĲĮ æĹ¶",
      "çģ «",
      "ä¸Ń åįİ",
      "æ² Ļ",
      "çĶ °",
      "éĿ Ĵ",
      "æĸ ½",
      "èī º",
      "ä¹ Ŀ",
      "å¸Ĥ éķĩ",
      "å· ±",
      "è¡ Ĺ",
      "æ¯ į",
      "ä½ľ ä¸º",
      "åĦ ¿",
      "19 7",
      "æ¹ ĸ",
      "åĽ ´",
      "çĪ ¶",
      "å® ¹",
      "æķ ´",
      "æ¨ ¡",
      "è ħ",
      "æī ĺ",
      "æĶ »",
      "åĽł ä¸º",
      "åĵ į",
      "é º",
      "åı¯ èĥ½",
      "åħ ´",
      "ä¹ĭ åĲİ",
      "éĻ Ī",
      "ç¾ ¤",
      "è½¦ ç«Ļ",
      "çĶµ è§Ĩ",
      "æĬ Ģ",
      "ç³» ç»Ł",
      "çĻ »",
      "è´ £",
      "å¿ Ĺ",
      "éĺ ²",
      "éĤ £",
      "çŃ ĳ",
      "æĭħ ä»»",
      "çĥ Ń",
      "è¯ ģ",
      "å¸ Ń",
      "ä¹ Į",
      "ä¿ Ħ",
      "a l",
      "ä¸ ĥ",
      "æģ ©",
      "å¤ ±",
      "å¤ ı",
      "å® ¤",
      "å± Ĥ",
      "ç ¢",
      "èĲ ½",
      "ç» §",
      "èĭ± åĽ½",
      "è¡¨ ç¤º",
      "è´ Ł",
      "æĦ Ł",
      "éĩ ĩ",
      "æ ¦",
      "è¶ Ĭ",
      "å½ĵ æĹ¶",
      "19 5",
      "æĺ ĵ",
      "å£ °",
      "çĭ ¬",
      "è Ń",
      "çĽ Ł",
      "ç» ĩ",
      "èĩª å·±",
      "åį Ĭ",
      "é ¸",
      "çĻ ¾",
      "ä¸Ń çļĦ",
      "æĹ¶ éĹ´",
      "é£ ŀ",
      "ç ħ",
      "åı Į",
      "æ£ ®",
      "èŃ ¦",
      "ä»ĸ çļĦ",
      "éľ Ģ",
      "å§ Ĩ",
      "é ±",
      "çĬ ¶",
      "çº ¢",
      "çļ ĩ",
      "åĨ ł",
      "ï¼Ī ï¼Į",
      "åŁ ĥ",
      "åį ł",
      "éĢļ è¿ĩ",
      "éħ į",
      "åł Ĥ",
      "é± ¼",
      "åĨ Ļ",
      "a t",
      "19 6",
      "èĢ ĥ",
      "è´ ¹",
      "å¥ ĩ",
      "æŃ ¥",
      "æ· ±",
      "2 5",
      "åıĳ å±ķ",
      "æĪĲ ç«ĭ",
      "æ ½",
      "é» ĳ",
      "åħ± åĴĮ",
      "éĻ Ĳ",
      "ä½ ķ",
      "ä½ ı",
      "æŀ ģ",
      "æł¹ æį®",
      "è´ Ŀ",
      "å· Ŀ",
      "å¯ Ł",
      "ç¡ ®",
      "å¤ ®",
      "å¹³æĸ¹ åħ¬éĩĮ",
      "e s",
      "æ ¾",
      "é£ Ł",
      "å± Ĭ",
      "è® ©",
      "i c",
      "åŃ¦ éĻ¢",
      "è± ¡",
      ") :",
      "æĽ ¼",
      "ï¼ī ãĢģ",
      "æ Ĥ",
      "å² ģ",
      "åıĳ çİ°",
      "ä¹ĭ ä¸Ģ",
      "å° Ħ",
      "è®¾ è®¡",
      "çĶ ²",
      "æĻ ¯",
      "èĪ °",
      "é¡ ¿",
      "æľŁ éĹ´",
      "ä» į",
      "ãĢį ï¼Į",
      "æĿ Ģ",
      "å»º çŃĳ",
      "âĢĿ ãĢĤ",
      "ç¤¾ ä¼ļ",
      "æĸ Ļ",
      "æŃ ¢",
      "èĢ ģ",
      "åĥ ı",
      "å±ŀ äºİ",
      "æī ¹",
      "æľ ¨",
      "æ³ °",
      "èĮ ĥ",
      "æ´ ĭ",
      "åĵ ¥",
      "çľ Ł",
      "åıĤ åĬł",
      "æ¥ ¼",
      "è¿ ª",
      "æİ §",
      "æ° ı",
      "çķ Ļ",
      "æ¸¸ æĪı",
      "ç¥ ¨",
      "ä¸Ń å¤®",
      "éĿ ©",
      "éŁ³ ä¹Ĳ",
      "å¾ ĭ",
      "æĥ ³",
      "æ¯Ķ èµĽ",
      "ä¸į åĲĮ",
      "å ĺ",
      "éĵģ è·¯",
      "ä½ İ",
      "æµ ĭ",
      "âĢ Ķ",
      "ç´ ¢",
      "ç»Ħ ç»ĩ",
      "å§Ķåĳĺ ä¼ļ",
      "å½± åĵį",
      "è¾ ĳ",
      "è¿Ļ äºĽ",
      "æ¡ ¥",
      "ä¾ ¿",
      "ä¸» ä¹ī",
      "æī į",
      "ç§° ä¸º",
      "åĨ ľ",
      "æķ Ī",
      "æ ¤",
      "çī Ļ",
      "çī Į",
      "ä» ħ",
      "åĩ ł",
      "æĸĩ åĮĸ",
      "æ ħ",
      "éĻ į",
      "èĴ Ļ",
      "ç§ »",
      "èĥ ľ",
      "åħ±åĴĮ åĽ½",
      "é Ń",
      "åº ĵ",
      "Ġ S",
      "æ¶ Ī",
      "æĪ ¿",
      "å¿ µ",
      "åģ ľ",
      "ä¸ĸ çºª",
      "è¿ °",
      "æİ Ī",
      "éĵ ¶",
      "åĶ ±",
      "åº ķ",
      "è¯ į",
      "2 4",
      "å ³",
      "åº ·",
      "è®¡ åĪĴ",
      "ç»ı æµİ",
      "æĢ ģ",
      "å¹´ çļĦ",
      "çĿ Ģ",
      "ç® Ģ",
      "ãĢį ãĢĤ",
      "ç´ ł",
      "æī ¿",
      "çł ģ",
      "é¢ Ħ",
      "å® ģ",
      "i s",
      "å ©",
      "æĺ ¾",
      "åŃ¦ æł¡",
      "æīĢ æľī",
      "è´ ¥",
      "f or",
      "çľ ĭ",
      "ä½ľ åĵģ",
      "å¹´ ä»£",
      "æ¸ ©",
      "åħ ¸",
      "ä» ·",
      "åĩº çİ°",
      "å¾ ģ",
      "åĪ ĺ",
      "æıĲ ä¾Ľ",
      "ç®¡ çĲĨ",
      "2 1",
      "å¹ ²",
      "æģ ¯",
      "éĻ Ħ",
      "åŁİ å¸Ĥ",
      "ä½ Ľ",
      "æĪ ·",
      "æ´» åĬ¨",
      "æŃ£ å¼ı",
      "äº ĳ",
      "ç½Ĺ æĸ¯",
      "éŁ ©",
      "è¯ Ŀ",
      "å¼ ¹",
      "è½ ½",
      "åĨ µ",
      "åıĳ çĶŁ",
      "t h",
      "å¾· åĽ½",
      "æī §",
      "å ´",
      "çĳ ŀ",
      "ä¹ĭ éĹ´",
      "åĪ© äºļ",
      "19 3",
      "æĹ¶ æľŁ",
      "åı ĭ",
      "æĬ Ĭ",
      "ç® Ĺ",
      "âĢĿ ï¼Į",
      "è¿Ļ ä¸ª",
      "åĿ ¦",
      "è¯ ·",
      "æ» ¡",
      "æ³ ¨",
      "æ¾ ³",
      "åĲİ æĿ¥",
      "ä¹ ł",
      "ç¥ ĸ",
      "éĢ Ģ",
      "æĹ §",
      "èĪ ¹",
      "2 3",
      "m u",
      "ä½ Ļ",
      "æĬ Ĺ",
      "æĢ Ŀ",
      "å® Ī",
      "åº Ħ",
      "è¿ ľ",
      "åł ¡",
      "åĢ Ļ",
      "æľ Ĺ",
      "æ Ĳ",
      "é ¹",
      "l e",
      "æľĢ åĲİ",
      "ä¸Ĭ çļĦ",
      "æľ Ľ",
      "2 8",
      "æľĢ ç»Ī",
      "å¼ Ĺ",
      "ä¸ ´",
      "å¿ «",
      "èĴ Ĥ",
      "çħ §",
      "ç« ł",
      "ä¾ §",
      "çĽ ĳ",
      "éĤ ¦",
      "è´Ł è´£",
      "ãĢĭ ï¼Į",
      "ä¸ ģ",
      "éĹ® é¢ĺ",
      "æķĻ èĤ²",
      "èİ «",
      "åģ ļ",
      "æ¢ ħ",
      "ä¾ Ŀ",
      "æĪĲ åĳĺ",
      "Ġ C",
      "å® «",
      "æĹ ħ",
      "æĭ ¿",
      "è¿Ľ åħ¥",
      "2 2",
      "å°¼ äºļ",
      "ç² ¾",
      "è®¸ å¤ļ",
      "çĿ £",
      "èĹ ı",
      "ä¸ ¹",
      "åħ¨ åĽ½",
      "ç¬¬ ä¸ī",
      "åįķ ä½į",
      "å½ĵ åľ°",
      "å· ¦",
      "å¯ Į",
      "åİ ĭ",
      "åı ¶",
      "ä¹Ł æĺ¯",
      "è Ľ",
      "çª ģ",
      "çł ´",
      "i t",
      "é ½",
      "æľį åĬ¡",
      "ä¸ ½",
      "éª Į",
      "2 6",
      "ä»¥ ä¸ĭ",
      "åİ ħ",
      "åĲį ä¸º",
      "åį ¢",
      "åĬ ¿",
      "åĲ «",
      "å° ģ",
      "äºº çļĦ",
      "çĶŁ æ´»",
      "åĪ¶ ä½ľ",
      "ä¸Ģ äºĽ",
      "æ° ¸",
      "æĸ Ĺ",
      "åİ Ĥ",
      "2 7",
      "åĢ ¼",
      "å·² ç»ı",
      "çļ ®",
      "å¤§ çļĦ",
      "åĮĹ äº¬",
      "æ ĵ",
      "5 0",
      "æĪĺ äºī",
      "æĭ Ķ",
      "mu la",
      "éĹ »",
      "e l",
      "for mula",
      "ä¼ ¼",
      "éļ ¾",
      "æĶ¯ æĮģ",
      "å» ¶",
      "r o",
      "åıĳ è¡Į",
      "å®£ å¸ĥ",
      "å·¥ ç¨ĭ",
      "è¯ Ĩ",
      "äº ¡",
      "åħ³ ç³»",
      "åº Ĺ",
      "20 20",
      "æĸ Ń",
      "ç» Ĩ",
      "åº Ĩ",
      "æŀ ¶",
      "èģĶ åĲĪ",
      "èĻ ½",
      "ä¸Ĭ æµ·",
      "åĪ ¤",
      "æł ¸",
      "è¶³ çĲĥ",
      "åĪ ĩ",
      "201 0",
      "éļ Ĩ",
      "å½ Ĵ",
      "Ġ M",
      "åı ³",
      "éº ¦",
      "åĺ ī",
      "äºº çī©",
      "åıĤ ä¸İ",
      "æ¯ Ľ",
      "èĬĤ çĽ®",
      "ç Ĩ",
      "è½ ®",
      "è¯ »",
      "ç¤ ¼",
      "ä¸¾ è¡Į",
      "äºĭ ä»¶",
      "èį ī",
      "åĨ³ å®ļ",
      "å² ¸",
      "20 19",
      "ä¼ ¤",
      "r e",
      "èµ «",
      "ä¸¤ ä¸ª",
      "æĿ °",
      "åľ° æĸ¹",
      "å® Ŀ",
      "ä¸ ¥",
      "èµ °",
      "éĩ İ",
      "éģ Ĺ",
      "åĶ Ĳ",
      "é© »",
      "00 0",
      "èĢ ¶",
      "å¿ ħ",
      "ç» Ŀ",
      "éĩį è¦ģ",
      "æĸ¹ éĿ¢",
      "ä¿Ŀ æĬ¤",
      "åº Ń",
      "2 9",
      "çŃ ĸ",
      "ä¼ ĺ",
      "a m",
      "æĭ ¥",
      "æ°ĳ åĽ½",
      "å½ ¹",
      "ä¿Ħ ç½Ĺæĸ¯",
      "éĥ ¡",
      "åį ´",
      "ä» Ģ",
      "èī ¾",
      "æĿ ¾",
      "ç ¯",
      "åĲĮ å¹´",
      "åĶ ®",
      "æ¤ į",
      "æ¯ ķ",
      "Ġ Ċ",
      "åĮĹ éĥ¨",
      "äººæ°ĳ åħ±åĴĮåĽ½",
      "è ĵ",
      "ä½ ³",
      "å¼ Ł",
      "é ³",
      "éģ Ń",
      "å° ļ",
      "å¼ Ĥ",
      "ä¹ ħ",
      "åĪ° äºĨ",
      "s t",
      "åĬł åħ¥",
      "çĽ® åīį",
      "å¯ º",
      "æį ¢",
      "ãĢĭ ãĢģ",
      "èı ²",
      "é ¼",
      "ç» ĥ",
      "ä¼ļ è®®",
      "ä¸º äºĨ",
      "çŁ Ń",
      "æĻ ļ",
      "ç½ ²",
      "æĬĢ æľ¯",
      "æ³ ½",
      "åĪĹ è½¦",
      "è¾ ĵ",
      "èį ¯",
      "æĺ ¥",
      "éĽ Ħ",
      "åŃ¦ å®¶",
      "åĪĨ åĪ«",
      "æ¬§ æ´²",
      "å ª",
      "i on",
      "åŃ¦ çĶŁ",
      "åĨł åĨĽ",
      "ã ģ",
      "èĪ ¬",
      "åħ ¹",
      "ç³» åĪĹ",
      "èĥ Į",
      "æ² ¹",
      "201 8",
      "éĢ ģ",
      "201 6",
      "å¸ ķ",
      "æĢ» ç»Ł",
      "éĶ Ģ",
      "æĸ¯ çī¹",
      "é¡ º",
      "ç« ¯",
      "c h",
      "éħ Ĵ",
      "ä¸ĵ è¾ĳ",
      "åĪĨ å¸ĥ",
      "éĢ Ĳ",
      "æĳ ©",
      "åį° åº¦",
      "ä¹ ĺ",
      "æ² ĥ",
      "çļĦ äºº",
      "éľĢ è¦ģ",
      "è½ »",
      "ä¸Ńåįİ äººæ°ĳåħ±åĴĮåĽ½",
      "Ġ A",
      "å»º ç«ĭ",
      "æ² ¿",
      "çİ Ľ",
      "æĿ Ł",
      "æĹ Ĺ",
      "æĺ¯ åľ¨",
      "æŀ ª",
      "åĲ ¯",
      "201 1",
      "æĳ Ħ",
      "åįĥ ç±³",
      "æļ ´",
      "æ£ Ģ",
      "çĶŁ å¹³",
      "è®¾ æľī",
      "å®Į æĪĲ",
      "åĨ ²",
      "æĿ ¨",
      "è¦ģ æ±Ĥ",
      "åįĹ éĥ¨",
      "æľĢ é«ĺ",
      "æĿ¥ èĩª",
      "çŃ ¾",
      "ç»Ħ æĪĲ",
      "åº ı",
      "è ŀ",
      "o l",
      "å° ½",
      "çĭ¬ ç«ĭ",
      "æľ «",
      "ä» ĭ",
      "ç± į",
      "çģ µ",
      "è· Ŀ",
      "i l",
      "201 7",
      "éĺ µ",
      "æĪĲ åĬŁ",
      "æĥħ åĨµ",
      "äº¤ éĢļ",
      "èĩª çĶ±",
      "èį £",
      "æ¬ ¾",
      "æµ· æĭĶ",
      "éĺ ¶",
      "åĲ ´",
      "202 1",
      "éĢī ä¸¾",
      "éĽ ħ",
      "ä¾ĭ å¦Ĥ",
      "èĻ½ çĦ¶",
      "o u",
      "é¢ ĳ",
      "åħ ¼",
      "å¯Ĩ åº¦",
      "201 4",
      "æĭ¥ æľī",
      "åŃĺ åľ¨",
      "âĢ ĭ",
      "äºĨ ä¸Ģ",
      "å¹¶ ä¸Ķ",
      "201 2",
      "åĬ ³",
      "å¼Ģ åıĳ",
      "201 5",
      "é¡ »",
      "å¯¼ èĩ´",
      "é¥ °",
      "201 3",
      "å¤§ éĻĨ",
      "åª Ĵ",
      "æĿ Ĥ",
      "äº ¿",
      "4 0",
      "æ ¿",
      "èĤ ¡",
      "åŃ Ļ",
      "çĦ¶ èĢĮ",
      "èīº æľ¯",
      "èĭ ¥",
      "æł ĳ",
      "çĽ ĸ",
      "Ġ P",
      "å© ļ",
      "ç½ ª",
      "æĭ į",
      "åıĹ åĪ°",
      "éĢļ å¸¸",
      "ãĢĭãĢģ ãĢĬ",
      "çķ ¥",
      "âĢĭ âĢĭ",
      "åīį å¾Ģ",
      "åħ į",
      "ç§ Ģ",
      "å Ĥ",
      "ã ĥ",
      "éĴ Ł",
      "ä¸ĭ è¾ĸ",
      "çĶ¨ äºİ",
      "åĽ½ æ°ĳ",
      "å° ¾",
      "z h",
      "çĽ¸ åħ³",
      "è´ ¢",
      "å¾ ®",
      "çº ½",
      "å® ³",
      "åĩ ı",
      "æĸ¹ å¼ı",
      "äºº åĳĺ",
      "Ġ B",
      "éĽĨ åĽ¢",
      "éĩĩ çĶ¨",
      "æķ £",
      "éħ ¸",
      "ä»ĸ åľ¨",
      "èģĶ çĽŁ",
      "åĲĪ ä½ľ",
      "200 9",
      "åŃ¦ åĲį",
      "èī ¯",
      "è¡ Ģ",
      "åħ± æľī",
      "è¿ ½",
      "é¡ ¶",
      "è¿ ģ",
      "éĻ ©",
      "æĿ ¿",
      "è´ Ń",
      "æĻ ĭ",
      "ä½Ĩ æĺ¯",
      "äº Ī",
      "æľ ±",
      "e t",
      "200 8",
      "äº§ çĶŁ",
      "åĩº çīĪ",
      "202 2",
      "ãĢĭ ãĢĤ",
      "åĸ Ħ",
      "å¹³æĸ¹ åįĥç±³",
      "èĥ ¡",
      "è° ·",
      "å® ¡",
      "çĶŁ äº§",
      "è¯ ĳ",
      "éĩ Ĭ",
      "æıĲ åĩº",
      "æ¯ Ĵ",
      "çī¹ åĪ«",
      "ç £",
      "æĿ ľ",
      "å· ®",
      "è¯ Ĺ",
      "éŁ ¦",
      "è½ ¨",
      "éĢ ı",
      "åĩ ¯",
      "çĲĥ éĺŁ",
      "èģĶ èµĽ",
      "Ġ T",
      "äºĮ åįģ",
      "å³ °",
      "å± ĭ",
      "è® Ń",
      "æ¯ķ ä¸ļ",
      "æ´ ¥",
      "è´ µ",
      "é«ĺ åº¦",
      "è¡ ¥",
      "çĥ Ī",
      "çļĦ å¤§",
      "æĿ ¯",
      "ä¼ ģ",
      "åħ »",
      "æĺ ł",
      "- {",
      "} -",
      "çĪ Ĩ",
      "åħ· æľī",
      "æĺ¯ ä¸Ģä¸ª",
      "æ°ĳ ä¸»",
      "è¿Ļ ä¸Ģ",
      "é½ Ĳ",
      "è¿Ļ ç§į",
      "é» İ",
      "å® ĭ",
      "ä¸ª äºº",
      "6 0",
      "ä¸ °",
      "åģ ĩ",
      "æŃĮ æĽ²",
      "äººåı£ å¯Ĩåº¦",
      "å¹¶ åľ¨",
      "è® ¿",
      "è¡Į æĺŁ",
      "è¡ĮæĶ¿ åĮº",
      "åľ° çĲĨ",
      "é¦ĸ æ¬¡",
      "ç»ĵ æŀĦ",
      "å® ¾",
      "ãĢĭ ï¼Ī",
      "æı ´",
      "åĸ ľ",
      "éĥ¨ éĺŁ",
      "æĮ ¥",
      "ç ĩ",
      "ä¸» æķĻ",
      "ä¸Ģ èĪ¬",
      "ç»ĵ æĿŁ",
      "å° º",
      "æķ ĳ",
      "é¡¹ çĽ®",
      "æİ§ åĪ¶",
      "ä¸» å¸Ń",
      "a s",
      "é² ľ",
      "éĺ¿ å°Ķ",
      "èĪ ŀ",
      "éļ ¶",
      "è ľ",
      "äº Ĵ",
      "åħĭ åħ°",
      "å½¢ æĪĲ",
      "å¯¹ äºİ",
      "ç§ ĺ",
      "a c",
      "è° ¢",
      "æŃ¤ å¤ĸ",
      "åĩº çĶŁ",
      "è§Ĵ èī²",
      "çĶ ļ",
      "è® ¯",
      "æķħ äºĭ",
      "è´ §",
      "æľī ä¸Ģ",
      "± ä¹Ĳ",
      "å· ¡",
      "ç»§ ç»Ń",
      "ä¸Ń åħ±",
      "æµ· åĨĽ",
      "o m",
      "æĹ¶ ä»£",
      "æİ¥ åıĹ",
      "å¤ º",
      "ä¹ Ķ",
      "éĶ ¦",
      "in g",
      "æī ©",
      "çĸ Ĺ",
      "å¢ŀ åĬł",
      "è¥¿ äºļ",
      "i g",
      "æķ° æį®",
      "éĢł æĪĲ",
      "æľº æŀĦ",
      "3 1",
      "å» ·",
      "æ¦ Ĥ",
      "æĹł æ³ķ",
      "è¾ Ĩ",
      "åıĸ å¾Ĺ",
      "èį ·",
      "ä»» ä½ķ",
      "ç« ŀ",
      "æı ı",
      "èĩ £",
      "é¢ Ŀ",
      "åı¦ å¤ĸ",
      "éĻĦ è¿ĳ",
      "è¡Į åĬ¨",
      "çļĦ æĺ¯",
      "èĪª ç©º",
      "200 7",
      "å¹´ èĩ³",
      "éĿ© åĳ½",
      "éĢ Ķ",
      "e d",
      "éľ į",
      "æ¢ ģ",
      "å¸Ŀ åĽ½",
      "æĴ ¤",
      "æĮ ī",
      "è® ²",
      "é¢Ĩ å¯¼",
      "ç»ĵ æŀľ",
      "åį Ī",
      "æĸ° éĹ»",
      "è¶ħ è¿ĩ",
      "è¢ Ń",
      "å¸ ģ",
      "åĮº çļĦ",
      "åĿ Ģ",
      "200 1",
      "ç§ĳ åŃ¦",
      "çī Ľ",
      "çĽ Ľ",
      "æĻ º",
      "ç ¦ģ",
      "è¯Ń è¨Ģ",
      "ä¸į è¿ĩ",
      "å¾ Ħ",
      "éŁ© åĽ½",
      "åĬ¨ çī©",
      "è Ķ",
      "ä» ª",
      "çİ ī",
      "Ġ L",
      "10 0",
      "åĨĽ äºĭ",
      "ç© Ĩ",
      "æĭ ľ",
      "å¤§ åĪ©",
      "ç½Ĺ é©¬",
      "æĿ Ĳ",
      "200 6",
      "å°± æĺ¯",
      "ã Ĥ",
      "èĮ ¨",
      "ä» ģ",
      "å¾Ĺ åĪ°",
      "åĨħ çļĦ",
      "æľº åľº",
      "çī© ç§į",
      "éĢ Ĥ",
      "çİ ©",
      "å¥³ æĢ§",
      "å¤ Ł",
      "19 0",
      "ä¹Į åħĭåħ°",
      "ä¸Ģ çĽ´",
      "è¿ Ķ",
      "æ¸ Ĳ",
      "åıĳ å¸ĥ",
      "æĺ Į",
      "æķ ¦",
      "éª ¨",
      "æīĢ ä»¥",
      "8 0",
      "å¹³ åĿĩ",
      "u s",
      "ç¿ °",
      "çļĦ æĹ¶",
      "æ· ·",
      "ä¼ł ç»Ł",
      "è¿ĲåĬ¨ åĳĺ",
      "ä½ ©",
      "ï¼Īï¼Į ï¼īï¼Į",
      "èģ ļ",
      "çĽ Ĭ",
      "ç« ¥",
      "åľ Ĩ",
      "éĥ ĳ",
      "åĮ ¹",
      "åĿ ¡",
      "æº ª",
      "æķ° éĩı",
      "åĪ ĳ",
      "è°ĥ æŁ¥",
      "çĶ· åŃĲ",
      "å±ħ æ°ĳ",
      "éĥ İ",
      "çļ Ĩ",
      "éĻ¤ äºĨ",
      "è ĸ",
      "ç»ı è¿ĩ",
      "æŁ ĵ",
      "å® ½",
      "ä¹ĭ åīį",
      "æį ķ",
      "åħ¬ åĽŃ",
      "å¤ ľ",
      "200 0",
      "çĬ ¯",
      "åªĴ ä½ĵ",
      "çĮ ®",
      "è¿ĩ ç¨ĭ",
      "èĮĥ åĽ´",
      "å¨ ľ",
      "å°ı æĹ¶",
      "éļı åĲİ",
      "é¸ Ł",
      "æĺ¯ ä½įäºİ",
      "202 3",
      "æĿ¥ çļĦ",
      "åĮº åŁŁ",
      "çĪ¶ äº²",
      "å² ©",
      "åĨ °",
      "è¥¿ çıŃ",
      "çºª å¿µ",
      "æŁ Ĳ",
      "æİ ¢",
      "èĩªå·± çļĦ",
      "å· ¨",
      "è¥¿çıŃ çīĻ",
      "çĤ ®",
      "ä¼ ĳ",
      "åįģ äºĮ",
      "è® ¨",
      "åĨħ å®¹",
      "éĿ¢ç§¯ ä¸º",
      "å¥³ åŃĲ",
      "åĲ Ľ",
      "åıª æľī",
      "åº Ļ",
      "éĩį æĸ°",
      "å±ŀ çļĦ",
      "çĪ µ",
      "ãĢĤ âĢĿ",
      "å®ī åħ¨",
      "ï¼ļ âĢľ",
      "æľī éĻĲ",
      "éľ ²",
      "è¯ ī",
      "åº Ł",
      "ç§ ģ",
      "å¦Ĥ æŀľ",
      "å¸ ®",
      "i d",
      "æĪ ª",
      "éĤ ®",
      "ä¸Ģ ç§į",
      "åħ¬ è·¯",
      "å¾ Ĵ",
      "Ġ R",
      "o f",
      "éģ ĩ",
      "æĽ ¿",
      "å·¥ ä¸ļ",
      "è½ ¯",
      "åħ ħ",
      "ä½ ł",
      "è§ ī",
      "æłĩ åĩĨ",
      "æľī åħ³",
      "èĵ Ŀ",
      "åıĳ è¡¨",
      "çİ° åľ¨",
      "å® ĩ",
      "æķ Į",
      "ä½į ç½®",
      "an d",
      "200 5",
      "ï¼ į",
      "åĪ »",
      "åħ± äº§",
      "åĲ ¦",
      "åħĭ æĸ¯",
      "è· Ł",
      "Ġ G",
      "åĲ ¸",
      "å»º è®¾",
      "7 0",
      "åĪ º",
      "æĭ ©",
      "åĢ Ł",
      "ä¸Ńåįİ æ°ĳåĽ½",
      "åĪĽ ä½ľ",
      "æĺ¯ çĶ±",
      "ç¼ĸ çłģ",
      "åĨĽ éĺŁ",
      "ç¼ º",
      "èĭı èģĶ",
      "å£ ¤",
      "æ¼Ķ åĳĺ",
      "ç¬ ¦",
      "å¹ ķ",
      "åı° åĮĹ",
      "èµ ŀ",
      "èĤ ¯",
      "çīĪ æľ¬",
      "ä¸ Ŀ",
      "æ¼ «",
      "çİ¯ å¢ĥ",
      "åĪ Ĭ",
      "æĪ Ī",
      "å® ª",
      "Ġ th",
      "æĹ ĭ",
      "å¾ ¡",
      "åĮº ä¸º",
      "éĿŀ å¸¸",
      "çİ° ä»£",
      "æ¬ ¢",
      "æĬ µ",
      "ç» ľ",
      "æ¤į çī©",
      "åĲį çļĦ",
      "æī ¾",
      "èµĽ äºĭ",
      "çĶŁ çī©",
      "åıį åºĶ",
      "éĽ ª",
      "ä¸Ń åŃ¦",
      "ä¹ ±",
      "åıį å¯¹",
      "è®® ä¼ļ",
      "è¯ ¸",
      "éĢ ĥ",
      "çĶ ³",
      "ç®¡ è¾ĸ",
      "ç¬¬ åĽĽ",
      "éĿ ł",
      "èģĶ éĤ¦",
      "3 5",
      "ä¹¦ è®°",
      "åĩº çļĦ",
      "æ¿ Ģ",
      "æ°ĳ æĹı",
      "æį Ł",
      "æĶ¹ ä¸º",
      "åģ ¥",
      "éĽ ¨",
      "åįı ä¼ļ",
      "Ġ D",
      "ä¾ µ",
      "ä¸» ä»»",
      "åĲį ç§°",
      "9 0",
      "ç¾İ åħĥ",
      "çľ ¼",
      "æķĻ æİĪ",
      "ä½ĵ èĤ²",
      "éª ĳ",
      "å° ¤",
      "ä¸¾ åĬŀ",
      "u n",
      "æł¼ åħ°",
      "èĢ ³",
      "æĪĳ ä»¬",
      "åĶ ¯",
      "å°ı è¡ĮæĺŁ",
      "å «",
      "è¡Į ä¸º",
      "æĢ ¥",
      "æ± ĩ",
      "é» ĺ",
      "æĮĩ æĮ¥",
      "æ´ ª",
      "ç» ©",
      "ä¹ İ",
      "åı ¬",
      "æľĢ ä½³",
      "Ġ H",
      "éĤ »",
      "è®¾ ç«ĭ",
      "ä¸Ģ èµ·",
      "æĢ Ģ",
      "æ® ¿",
      "æĹ¶ çļĦ",
      "a d",
      "çĽ´ æİ¥",
      "éĴ Ī",
      "è ª",
      "åĽ º",
      "å¾ ħ",
      "ç¿ »",
      "è®® åĳĺ",
      "æ³ķ éĻ¢",
      "çĹ ĩ",
      "èģĮ ä¸ļ",
      "åħ± åĲĮ",
      "è·Ŀ ç¦»",
      "éĢī æĭ©",
      "èĩª æ²»",
      "åĳ ¼",
      "å°ı è¯´",
      "è¿ «",
      "æ¶ ¯",
      "åľ° çļĦ",
      "ä¹Ł æľī",
      "æĹ¥ åľ¨",
      "è® ¢",
      "åħ¬ å¼Ģ",
      "èµĦ æĸĻ",
      "ç© ¿",
      "éĥ¨ éķ¿",
      "åħ Ħ",
      "ç¾ ½",
      "æ¯ ģ",
      "ï¼ļ ï¼ī",
      "ä¸ŃåĽ½ å¤§éĻĨ",
      "åĮħ åĲ«",
      "å¥ ī",
      "èµ µ",
      "å½¢ å¼ı",
      "en t",
      "æĸ° çļĦ",
      "å¤Ħ çĲĨ",
      "å¹¶ ä¸į",
      "åŁ ¹",
      "ä¼ģ ä¸ļ",
      "éļ Ķ",
      "ç» ¿",
      "è¿ĲåĬ¨ ä¼ļ",
      "å¤§ éĩı",
      "ä¸ľ åĮĹ",
      "åĪĨ ä¸º",
      "çĤ ¸",
      "æ± ½",
      "è¿ĺ æľī",
      "çĶµ åŃĲ",
      "æĦ ¿",
      "å°Ķ æĸ¯",
      "é Ĩ",
      "èĥ ŀ",
      "æĪĺ æĸĹ",
      "Ġ F",
      "è° Ī",
      "å®¶ åºŃ",
      "æ¦ ľ",
      "æĸ¹ æ³ķ",
      "åį ·",
      "è¡Ĺ éģĵ",
      "æĵ į",
      "è° ĭ",
      "åĨ³ èµĽ",
      "éĥ½ æĺ¯",
      "çĸ ĳ",
      "å¹´ éĹ´",
      "æĺ¾ ç¤º",
      "é¡ ¾",
      "æī§ è¡Į",
      "åĪ© çĶ¨",
      "çģ Ń",
      "èĦ ĳ",
      "å®Į åħ¨",
      "å¹¶ äºİ",
      "åı¦ ä¸Ģ",
      "æ¶ ī",
      "éľ ĩ",
      "200 4",
      "åĮ» éĻ¢",
      "éĴ ±",
      "è¯ ¾",
      "åĿ ļ",
      "åĲ ¬",
      "å°Ĩ åĨĽ",
      "æī İ",
      "æĬ¥ åĳĬ",
      "çľģ ä»½",
      "å¤ļ æķ°",
      "çĽ´ åĪ°",
      "çĶŁ æ¶¯",
      "æµ Ļ",
      "å¦ »",
      "çĶļ èĩ³",
      "è£ ģ",
      "èĪ į",
      "è¿Ļ æĺ¯",
      "æĪ ´",
      "éĵ¶ è¡Į",
      "å¸Ĥ åľº",
      "é¢ Ĺ",
      "åĬ¨ çĶ»",
      "æĦı å¤§åĪ©",
      "åĨį æ¬¡",
      "æ¡ ĳ",
      "ä¹ Ī",
      "èİ ī",
      "çļĦä¸Ģä¸ª å¸Ĥéķĩ",
      "o w",
      "åĬ ª",
      "u r",
      "è¯¥ åĽ½",
      "o d",
      "æ³ķ å¾ĭ",
      "å¿ħ é¡»",
      "éŃ Ķ",
      "èĦ ±",
      "åĲİ çļĦ",
      "ç« ¹",
      "æĶ¿ çŃĸ",
      "å®¶ æĹı",
      "åħ³ äºİ",
      "çĥŃ å¸¦",
      "èĩª çĦ¶",
      "202 4",
      "æµ·æĭĶ é«ĺåº¦",
      "æĢ§ çļĦ",
      "èĬ ¬",
      "åŃ ©",
      "4 5",
      "åŃ¦ ä¹ł",
      "èŀ į",
      "æŁ ı",
      "ä¸ī å¹´",
      "å¹¿ ä¸ľ",
      "åŃ Ķ",
      "æĶ¿æ²» äººçī©",
      "éķ ľ",
      "æ¯ «",
      "å¿ ł",
      "è¾ Ľ",
      "åį ±",
      "ï¼ļ ãĢĮ",
      "äºļ æ´²",
      "h e",
      "æ³ Ľ",
      "ç¿ ¼",
      "è Ŀ",
      "å®ĥ ä»¬",
      "çĸ «",
      "æ® ĸ",
      "å§ ĵ",
      "ç» į",
      "æľĿ é²ľ",
      "çĽ ĺ",
      "å¤§ ä¼ļ",
      "ä¹ °",
      "ä¸ĭ çļĦ",
      "ç¯ ĩ",
      "ä¸º ä¸»",
      "ç§ ĭ",
      "æĺ¯ä¸Ģ ç§į",
      "æ¨ ª",
      "åĽ¢ ä½ĵ",
      "æĸĩ åŃ¦",
      "å¥ ı",
      "åĿ Ĳ",
      "æĸĩ çī©",
      "å¾ Ĳ",
      "ç¼ĸçłģ ä¸º",
      "å¢ĥ åĨħ",
      "çĲĨ è®º",
      "æģ Ĵ",
      "åŁº ç¡",
      "éģ ¿",
      "å»º äºİ",
      "æļ Ĥ",
      "åħ¬ åħ±",
      "æģ ¶",
      "è¥¿ éĥ¨",
      "ç¼ ©",
      "åĳ Ī",
      "è·¯ çº¿",
      "è´ ¡",
      "æĸ¯ åĿ¦",
      "æĥ ł",
      "è¡ĮæĶ¿åĮº åĪĴ",
      "Ġ of",
      "4 8",
      "æ» ¨",
      "äºº ç±»",
      "ä»¥ æĿ¥",
      "åĿ Ĺ",
      "ç´ §",
      "ç±» ä¼¼",
      "åĪ ļ",
      "èī ĩ",
      "åĿ ı",
      "æĭį æĳĦ",
      "å¸Į æľĽ",
      "å®ŀ éĻħ",
      "ç¦» å¼Ģ",
      "åŁº æľ¬",
      "åŁºç¡ Ģ",
      "åĪ¶ éĢł",
      "è Ĩ",
      "çº¦ ç¿°",
      "åķĨ ä¸ļ",
      "å®ĺ æĸ¹",
      "æĶ» åĩ»",
      "èĥ½ åĬĽ",
      "äºİ æĺ¯",
      "ï¼Į ãĢĬ",
      "çºª å½ķ",
      "åĬŁ èĥ½",
      "çĶ ĺ",
      "ä¸ľ éĥ¨",
      "Ġ I",
      "æĭī æĸ¯",
      "æ³ ī",
      "åĬł æĭ¿",
      "æŀ ļ",
      "è§£ æĶ¾",
      "æŃ» äº¡",
      "å¢ ĵ",
      "èĦ ī",
      "æĹ© æľŁ",
      "ä» ĺ",
      "Ġth e",
      "âĢĶ âĢĶ",
      "ä¹ĭéĹ´ çļĦ",
      "æİ¥ å£¤",
      "ä½ Ĳ",
      "å½ĵ ä¸Ń",
      "èĳ £",
      "éĵ ľ",
      "å°½ ç®¡",
      "å¤ĸ äº¤",
      "èµ ĸ",
      "ä¼ į",
      "è¯ ¯",
      "èĥ½ å¤Ł",
      "æī ¬",
      "éĻ µ",
      "åħ¨ çĲĥ",
      "è¡¨ çİ°",
      "è ķ",
      "ä¸¥ éĩį",
      "æł ĸ",
      "æ½ ®",
      "å¹¿ æĴŃ",
      "çļĦ åľ°",
      "ç¬¬ åįģ",
      "æ½ ľ",
      "åĨ ¬",
      "å¯ »",
      "ä½ľ çĶ¨",
      "æľĢ åĪĿ",
      "æ° §",
      "æŀ Ĳ",
      "å¢ ¨",
      "éĶ ¡",
      "ç©º éĹ´",
      "èħ Ĭ",
      "å¥ Ĺ",
      "æ¼Ķ åĩº",
      "éĺ »",
      "ä¸į æĺ¯",
      "Ġ d",
      "æĽ¾ ç»ı",
      "åħ±äº§ åħļ",
      "æıı è¿°",
      "å¤§ åĮº",
      "çĳ Ł",
      "Ġ W",
      "æİ¨ åĩº",
      "ä¸ľ åįĹ",
      "200 3",
      "åİ» ä¸ĸ",
      "è¿ ¹",
      "ä»» åĬ¡",
      "éŃ ı",
      "èµ ¤",
      "çº ²",
      "å¹´ äººåı£",
      "æ± ł",
      "å·´ å£«",
      "å» ī",
      "è´ ¸",
      "åįļ çī©",
      "ä¸ī ä¸ª",
      "åĪĨå¸ĥ äºİ",
      "3 6",
      "è§Ħ æ¨¡",
      "äºĭ åĬ¡",
      "åįķ æĽ²",
      "åħ¶ åĲİ",
      "ä¸Ģ å¹´",
      "äº ķ",
      "è®¡ ç®Ĺ",
      "è¡ £",
      "æľĪ åı°",
      "æĮĩ åĩº",
      "è¿Ľ å£«",
      "å¥¹ çļĦ",
      "æį ·",
      "åı· çº¿",
      "å® ľ",
      "ãĢį ï¼Ī",
      "è¿ ·",
      "ä¸Ģ æ¬¡",
      "æµĻ æ±Ł",
      "æĸ¹ åĲĳ",
      "ä¸ľ äº¬",
      "æĻ® æŁ¥",
      "å¤ª éĺ³",
      "åģ ı",
      "¤ Ĳ",
      "çŁ ¿",
      "å¥¥ æŀĹ",
      "ç¼ ĺ",
      "i r",
      "å®ļ çļĦ",
      "å¼ ĥ",
      "é©¬ æĿ¥",
      "åĨ ·",
      "èı Į",
      "è¾¾ åĪ°",
      "å°Ĩ åħ¶",
      "æģ Ĳ",
      "ä¸į èĥ½",
      "ä¸» æĮģ",
      "çĶ º",
      "å¤ª å¹³",
      "æľīéĻĲ åħ¬åı¸",
      "èª ī",
      "ç»Ł æ²»",
      "è¿ İ",
      "åĬłæĭ¿ å¤§",
      "o s",
      "è¾ ħ",
      "å¤ı åŃ£",
      "åĲĪ å¹¶",
      "éĹ Ń",
      "åħ¬ å¸ĥ",
      "åĽ½ çİĭ",
      "èĢĮ ä¸Ķ",
      "èĤ ī",
      "åĿ ĳ",
      "ç» ¼",
      "3 8",
      "äº «",
      "æĴŃ åĩº",
      "å¹´ åľ¨",
      "æ¸ ¡",
      "Ġ E",
      "è ¸",
      "èĴĻ åı¤",
      "åľ Ī",
      "è®¾ æĸ½",
      "å¹¿ å·ŀ",
      "è¥¿ åĮĹ",
      "åĲĦ ç§į",
      "ç¬¬ä¸Ģ æ¬¡",
      "âĢ ¦",
      "åĶ¯ ä¸Ģ",
      "ä¼ °",
      "3 7",
      "ä»į çĦ¶",
      "æ¨¡ å¼ı",
      "å¥¥æŀĹ åĮ¹",
      "200 2",
      "éģĵ è·¯",
      "çĲ ´",
      "å½ĵ éĢī",
      "i m",
      "é³ į",
      "åĵ ²",
      "äº§ åĵģ",
      "èĻ «",
      "åİŁ åĽł",
      "è¿ŀ æİ¥",
      "å°Ķ çľģ",
      "t er",
      "å¹´ åº¦",
      "æĭ Ľ",
      "æĺ Ĥ",
      "è¢« ç§°ä¸º",
      "è¥¿ åįĹ",
      "å±± ä¸ľ",
      "éĶ¦ æłĩ",
      "ç ¹",
      "é¢ ģ",
      "çĽ¸ å½ĵ",
      "èµĽ åŃ£",
      "å¥ Ī",
      "åıĺ åĮĸ",
      "åľ¨ æŃ¤",
      "ä¸Ģ åĲį",
      "i v",
      "éĩĮ æĸ¯",
      "æĮģ ç»Ń",
      "æ¼Ķ åĶ±",
      "è· ¨",
      "éĺ ´",
      "èµ ¢",
      "å®Ĺ æķĻ",
      "ä¸ĵ ä¸ļ",
      "çı ł",
      "äºº å£«",
      "äº ®",
      "å®ŀ éªĮ",
      "ç» ĺ",
      "e c",
      "éĢı è¿ĩ",
      "åĮĸ åŃ¦",
      "å¼Ģ æĶ¾",
      "çº½ çº¦",
      "å¦ ĩ",
      "æģ ¢",
      "åĨ Ī",
      "æ¶ ħ",
      "i a",
      "ï¼Īï¼Į ï¼ī",
      "éĴ ¢",
      "ãĢĤ ãĢį",
      "æĢ» äººåı£",
      "åįļçī© é¦Ĩ",
      "æ» ĳ",
      "å¥¥æŀĹåĮ¹ åħĭ",
      "Ġ \"",
      "çļĦ ä¸»",
      "éĺ¿ æĭī",
      "åį ĸ",
      "æĤ £",
      "åī ĳ",
      "çĬ ¹",
      "ä½¿ å¾Ĺ",
      "r a",
      "çĽ® æłĩ",
      "å½ ©",
      "å¦ ¹",
      "ç¹ ģ",
      "ä¸įåĲĮ çļĦ",
      "æİĴ åĲį",
      "18 9",
      "ä¸Ģ æł·",
      "éĢ Ĭ",
      "èĻ İ",
      "åĦ¿ åŃĲ",
      "3 4",
      "èĳ ¡",
      "ä»ĸä»¬ çļĦ",
      "åĬŀ åħ¬",
      "éļ ľ",
      "é© ±",
      "æļ Ĺ",
      "éº »",
      "I N",
      "éĢĲ æ¸Ĳ",
      "æ¢ ¦",
      "ä¹ Ļ",
      "ãĢ ī",
      "o t",
      "æĭ Ĵ",
      "è®Ń ç»ĥ",
      "æģ¢ å¤į",
      "ãĢ Ī",
      "èĢħ çļĦ",
      "è½¨ éģĵ",
      "æ´ ŀ",
      "è± ª",
      "ä¼ Ĳ",
      "è¾ ŀ",
      "ç¨ ³",
      "h an",
      "ç½ĳ ç»ľ",
      "å¯ ¿",
      "çĲĥ åĳĺ",
      "çĽ¸ åĲĮ",
      "è§Ħ å®ļ",
      "æŃĮ æīĭ",
      "é£İ æł¼",
      "è¶Ĭ åįĹ",
      "éĶ Ļ",
      "åĳ ³",
      "åī Ĥ",
      "7 5",
      "åĽĽ å¹´",
      "åı¸ ä»¤",
      "æ¾³ éĹ¨",
      "é«ĺ éĢŁ",
      "èİ İ",
      "åºĶ çĶ¨",
      "åĲ ķ",
      "éĿĴ å¹´",
      "å®ļ ä¹ī",
      "åĩ ¤",
      "åıĳ åĬ¨",
      "è¿Ļ æł·",
      "åĢ Ĵ",
      "é£ŀ æľº",
      "å¥¥ è¿Ĳ",
      "ç»Ĩ èĥŀ",
      "u m",
      "å¾ ½",
      "åĪĹ è¡¨",
      "ç§ Ł",
      "e m",
      "èĽ ĭ",
      "ä¿ ±ä¹Ĳ",
      "èĦ ļ",
      "åĨ Į",
      "å´ ĩ",
      "ç¡ ¬",
      "åĩ» è´¥",
      "ä¿±ä¹Ĳ éĥ¨",
      "æ¯į äº²",
      "çŃī äºº",
      "åı «",
      "éĺ ģ",
      "éĤ Ģ",
      "çĽ Ĳ",
      "éĻ ¶",
      "æľĢ å¤§",
      "ä¸º äºº",
      "æ¡ £",
      "ç¤¾ åĮº",
      "è§ ¦",
      "éĥ¨ éĹ¨",
      "æľº è½¦",
      "âĢĭâĢĭ âĢĭâĢĭ",
      "ä¾ ¯",
      "æĪĲ ç»©",
      "å¢ Ļ",
      "% ï¼Į",
      "at ion",
      "ä¸į ä¼ļ",
      "è®¾ ç½®",
      "å¸Į èħĬ",
      "å¯¼ æ¼Ķ",
      "å½ ¼",
      "è¯ Ĭ",
      "åŁº çĿ£",
      "Ġ c",
      "éĢ Ŀ",
      "éĿ Ļ",
      "ç Ĵ",
      "æĬķ èµĦ",
      "å¾Ī å¤ļ",
      "3 9",
      "çģ ¾",
      "Ġ s",
      "å»º éĢł",
      "è£ Ķ",
      "ç¬¬ äºĶ",
      "åįļ å£«",
      "çļĦä¸Ģ éĥ¨åĪĨ",
      "åįĹ äº¬",
      "199 0",
      "æµ ¦",
      "åŁİ åĮº",
      "ä» Ļ",
      "ä¿ Ĺ",
      "ä¸¤ äºº",
      "å¤§ éĥ¨åĪĨ",
      "èĥĮ æĻ¯",
      "çĶµè§Ĩ åı°",
      "éĺ¶ æ®µ",
      "æ¶ ²",
      "ï¼Į âĢľ",
      "åľŁ åľ°",
      "å¹´ èµ·",
      "å¹ ¼",
      "èµ ı",
      "ç¬ Ķ",
      "ç§ ¦",
      "ãĢį ãĢģ",
      "åĽĽ å·Ŀ",
      "åĩ ½",
      "çº ¸",
      "åĪ¶ åº¦",
      "å° Ĭ",
      "ç®Ģ ç§°",
      "åĽ °",
      "è£ Ĥ",
      "å¤§ æĪĺ",
      "åĪĨ éĴŁ",
      "3 2",
      "éĽ ¶",
      "æī¹ è¯Ħ",
      "ä¸ī åįģ",
      "æĭ Ł",
      "5 5",
      "è ļ",
      "çļĦ æĸ°",
      "çĪĨ åıĳ",
      "å¸® åĬ©",
      "èī ĺ",
      "ç¨ İ",
      "çĸ Ĩ",
      "Ġ N",
      "æ² ī",
      "ç»´ å°Ķ",
      "ç¾¤ å²Ľ",
      "èº« ä»½",
      "åħ¨ éĥ¨",
      "æĶ¹ éĿ©",
      "åĲį åŃĹ",
      "æĪĺ å½¹",
      "åŃ¦ èĢħ",
      "éĻĨ åĨĽ",
      "ä¸į ä¹ħ",
      "èŃ¦ å¯Ł",
      "çļĦ çī¹",
      "ä¿ ĥ",
      "æĺ Ń",
      "è®° è½½",
      "ç² ī",
      "b r",
      "æ® ĭ",
      "å¹¿ åľº",
      "ä¼¦ æķ¦",
      "4 6",
      "éĻ ·",
      "æ±½ è½¦",
      "è¯Ħ è®º",
      "åľ° ä¸ĭ",
      "éĢŁ åº¦",
      "éķĩ åĮº",
      "åĪĨ ç±»",
      "æ¼« çĶ»",
      "ç» ķ",
      "æķ´ ä¸ª",
      "æŁ ±",
      "éĥ Ń",
      "çĶ· æĢ§",
      "ä½Ĩ åľ¨",
      "è§Ħ åĪĴ",
      "a g",
      "åĳ½ åĲį",
      "èĭ± è¯Ń",
      "ä¸Ń éĥ¨",
      "äº ¨",
      "è® ·",
      "æĮ ¯",
      "æ¯« ç±³",
      "æ¥ ļ",
      "ç¬¬äºĮ æ¬¡",
      "å¹ ¸",
      "çī §",
      "åľ° çĲĥ",
      "æİ Į",
      "çĦ¶ åĲİ",
      "é£ŀ è¡Į",
      "å¤ļ çļĦ",
      "è¿ŀ ç»Ń",
      "é¼ ĵ",
      "å°Ķ å¾·",
      "æµ ª",
      "é© ¶",
      "çİ© å®¶",
      "æĺ¯ æ³ķåĽ½",
      "ä¸ ĺ",
      "ç«ĭ æ³ķ",
      "å»º è®®",
      "ä¼ Ł",
      "è¿ Ī",
      "3 3",
      "æŁ ¯",
      "æĸ¯ ç§ĳ",
      "è§ Ī",
      "å¤§ çº¦",
      "199 9",
      "åĪĨ æŀĲ",
      "% ãĢĤ",
      "æĺ Ĩ",
      "ig h",
      "\" ï¼ī",
      "åħ ģ",
      "o p",
      "èµĦ æł¼",
      "å¼ ±",
      "æĿĤ å¿Ĺ",
      "ç¦ı å»º",
      "å¤© ä¸»æķĻ",
      "è¡¨ æ¼Ķ",
      "è´Ŀ å°Ķ",
      "åģ ¶",
      "ç§ĳ æĬĢ",
      "è´¸ æĺĵ",
      "çĸ ¾",
      "ä¿¡ æģ¯",
      "å¼ķ èµ·",
      "èĶ ¡",
      "èĲ Ħ",
      "åħĪ åĲİ",
      "åľ°åĮº çļĦ",
      "æ²³ åįĹ",
      "èĳ¡ èĲĦ",
      "åı¯ä»¥ æĮĩ",
      "ç»ı å¸¸",
      "ç» ª",
      "199 8",
      "çŃī åľ°",
      "åĪĻ æĺ¯",
      "æµģ è¡Į",
      "6 5",
      "è¾ ½",
      "æĽ¾ ä»»",
      "4 7",
      "éĶ¦æłĩ èµĽ",
      "ä½ľ å®¶",
      "ä»» åĳ½",
      "æĭ Ĩ",
      "æ¯Ķ äºļ",
      "å¹³ åı°",
      "ç½ĳ ç«Ļ",
      "æĪĸ èĢħ",
      "æŃ¦ åĻ¨",
      "è¿ Ŀ",
      "äºĶ å¹´",
      "æĿ¡ ä»¶",
      "èµ¢ å¾Ĺ",
      "äººåı£ æĻ®æŁ¥",
      "è¿Ĳ è¾ĵ",
      "é½ ¿",
      "çī© çĲĨ",
      "ä»¥ ä¸Ĭ",
      "æĹ¥ èĩ³",
      "çļĦ ä¸»è¦ģ",
      "198 0",
      "åĲĮ æł·",
      "åĩº ä»»",
      "éģŃ åĪ°",
      "å¤Ħ äºİ",
      "èĭ± æĸĩ",
      "å½± çīĩ",
      "S E",
      "åĪĨ åŃĲ",
      "ç»ı èĲ¥",
      "æĢ» éĿ¢ç§¯",
      "ç¥ Ń",
      "æĲ Ń",
      "çº¿ çļĦ",
      "åħ¬ å°º",
      "å¥¥æŀĹåĮ¹åħĭ è¿ĲåĬ¨ä¼ļ",
      "è½¦ è¾Ĩ",
      "ç¾İ æ´²",
      "æ£ Ĵ",
      "çĭ ±",
      "çº¿ è·¯",
      "ä¸ļ åĬ¡",
      "æ³¢ åħ°",
      "åĩı å°ĳ",
      "ç¯ ®",
      "è®° å½ķ",
      "é ¤Ĳ",
      "å² Ń",
      "å® ħ",
      "äºº ä»¬",
      "é¢Ĩ åŁŁ",
      "åĩºçĶŁ äºİ",
      "ä½įäºİ è¯¥åĽ½",
      "å¤© æ´¥",
      "å±ħ ä½ı",
      "å¹ ħ",
      "æĺİ æľĿ",
      "ä¿Ŀ æĮģ",
      "çģ ¯",
      "åŃ¦ ä½į",
      "å¤ļ æ¬¡",
      "çĩ ĥ",
      "æŃ¤ åĲİ",
      "âĢĿ ï¼Ī",
      "å¹´ ç¾İåĽ½",
      "Ġ t",
      "æķ ı",
      "å·ŀ å¸Ĥ",
      "å® ¿",
      "æķĻ åłĤ",
      "ç»Ł è®¡",
      "åıĸ ä»£",
      "æľĢ å¤§çļĦ",
      "èĻ ĳ",
      "ä¸ĭè¾ĸ çļĦä¸Ģä¸ª",
      "æĪª èĩ³",
      "è¿ĩ åİ»",
      "æĭĴ ç»Ŀ",
      "ä¸Ń æĸĩ",
      "ä¼ ´",
      "è®¾ å¤ĩ",
      "æ² Ī",
      "åİ ¦",
      "æĹ ģ",
      "éķ¿ çļĦ",
      "ä» Ķ",
      "T C",
      "âĢ ĵ",
      "ç¢ ĳ",
      "è¯¥ åľ°",
      "é¢ĳ éģĵ",
      "éĤ® æĶ¿",
      "åįł é¢Ĩ",
      "ç»ı åİĨ",
      "åħĥ å¹´",
      "è· ĳ",
      "ä¹ ĥ",
      "æľĢ æĹ©",
      "æĽ ¹",
      "èİ·å¾Ĺ äºĨ",
      "ç±» åŀĭ",
      "æ ©",
      "æĶ¹ åıĺ",
      "è®° èĢħ",
      "äºī è®®",
      "èĳ ¬",
      "é¾ Ħ",
      "Ġ K",
      "åĨħ éĥ¨",
      "å®ĺ åĳĺ",
      "åĽ¾ ä¹¦",
      "å®£ ä¼ł",
      "åŁ Ķ",
      "æĹ¥ èµ·",
      "æ± Ĺ",
      "åıĳ å°Ħ",
      "åįı åĬ©",
      "èı ľ",
      "èĹ ¤",
      "æ± ¤",
      "å¤ļ ä¸ª",
      "æ¯Ķ è¾ĥ",
      "è½ ´",
      "æłĸ æģ¯",
      "5 00",
      "éļ Ĳ",
      "199 7",
      "åĨľ ä¸ļ",
      "æ¯ı å¹´",
      "èį· åħ°",
      "4 9",
      "é¢ ľ",
      "ç¬¬ ä¸Ģä¸ª",
      "çĬ¶ æĢģ",
      "åĭ ĩ",
      "a y",
      "åĩł ä¹İ",
      "è¿Ĳ è¡Į",
      "çĶµè§Ĩ åī§",
      "ä½ľ æĪĺ",
      "åŃ Ł",
      "å·ŀ çļĦ",
      "æ· ¡",
      "Ġ p",
      "æ® Ĭ",
      "çļĦ æĥħåĨµ",
      "çĶŁ äºİ",
      "å¤ı ä»¤",
      "ä¸Ģ æŃ¥",
      "ä¼Ĭ æĸ¯",
      "æľī çļĦ",
      "18 8",
      "æģ ĭ",
      "å·¦ åı³",
      "åı Ļ",
      "ç³ ĸ",
      "ãĢĤ ãĢĬ",
      "æĮ ĳ",
      "åĽ½ çļĦ",
      "èĻ ļ",
      "å®ŀ çİ°",
      "æ°´ åŁŁ",
      "æ¾³ å¤§",
      "åľ° éĵģ",
      "å¦ ®",
      "éĥ¨ ä»½",
      "åŁİ éķĩ",
      "çĹħ æ¯Ĵ",
      "åĩĨ å¤ĩ",
      "å¹¿ æ³Ľ",
      "çĽ¸ å¯¹",
      "å®ŀ æĸ½",
      "å¹´ åĲİ",
      "è¿ĺ æĺ¯",
      "éĽ ķ",
      "å¡ŀ å°Ķ",
      "åıĤ èµĽ",
      "åĽŀ åĪ°",
      "çļĦ å½±åĵį",
      "éĶ ®",
      "çº ¯",
      "é©¬æĿ¥ è¥¿äºļ",
      "éģ į",
      "è´Łè´£ ç®¡è¾ĸ",
      "è¡ ¡",
      "æĸĩçī© ä¿ĿæĬ¤",
      "éĻĲ åĪ¶",
      "å£ ģ",
      "çŃ ¹",
      "Ġ O",
      "ãĢįãĢģ ãĢĮ",
      "æ²» çĸĹ",
      "åĤ ¨",
      "åĦ¿ ç«¥",
      "çĥ §",
      "åĽ½ ä¼ļ",
      "åıĬ åħ¶",
      "åħĦ å¼Ł",
      "åĬł åĿ¡",
      "6 4",
      "çģ °",
      "å¤§ åŀĭ",
      "èĢĮ åľ¨",
      "ä½ĵ çļĦ",
      "æ¦Ĥ å¿µ",
      "ç»Ł ä¸Ģ",
      "åıĪ ç§°",
      "Ġ b",
      "199 6",
      "å·´ é»İ",
      "çŃ Ķ",
      "t e",
      "è¢« è®¤ä¸º",
      "åĩº äºĨ",
      "ä¸ĩ äºº",
      "ç´ ¯",
      "ç»Ħ åĲĪ",
      "é¥° æ¼Ķ",
      "å±ķ å¼Ģ",
      "ä¾ į",
      "è§Ĩ ä¸º",
      "t a",
      "çľģ çº§",
      "åįı è®®",
      "è¯Ħ ä»·",
      "èĩª åĬ¨",
      "è´ ¾",
      "å¹´ å¤ıåŃ£",
      "æĺ¯ ä¸ŃåĽ½",
      "æĬ ĺ",
      "ä¹ĭ å¤ĸ",
      "åĭ ĭ",
      "ä¸ª æľĪ",
      "æ¸ħ æľĿ",
      "å¤§ æ¥¼",
      "çļĦæĹ¶ åĮºä¸º",
      "éķ¿ æľŁ",
      "æĿ¥ æºĲ",
      "è¾ Ĳ",
      "å¹ »",
      "åİŁ æľ¬",
      "ä¼ļ åľ¨",
      "çĥ Ł",
      "è ¦",
      "å¨ģ å»ī",
      "æĽ¾ åľ¨",
      "u l",
      "çº µ",
      "åŁº äºİ",
      "å®ĥ çļĦ",
      "æĸĩçī©ä¿ĿæĬ¤ åįķä½į",
      "æĸ° åĬłåĿ¡",
      "çľģ çļĦä¸Ģä¸ªå¸Ĥéķĩ",
      "å§ Ĳ",
      "äºĮ å¹´",
      "åĴĮ å¹³",
      "å¨ ±ä¹Ĳ",
      "u b",
      "çĤ İ",
      "ä¼ ¸",
      "èµĦ æºĲ",
      "æīĢ åľ¨",
      "çı į",
      "é ¬",
      "æ¢ °",
      "ä¸į å°ĳ",
      "åĬł ä¸Ĭ",
      "è´ ¤",
      "ï¼ ģ",
      "éĤ ĵ",
      "çļĦ åīį",
      "6 8",
      "ç©º åĨĽ",
      "éĻ ķ",
      "ç»¼ åĲĪ",
      "è§£ åĨ³",
      "å¤ªå¹³ æ´ĭ",
      "æ¡ ĥ",
      "åĶ± çīĩ",
      "æ¾³å¤§ åĪ©äºļ",
      "èĭ± æł¼åħ°",
      "åī§ æĥħ",
      "åĿ Ľ",
      "æķ ¬",
      "å³ ¡",
      "o c",
      "äº¤ æĺĵ",
      "èĩ³ ä»Ĭ",
      "éĶ ĭ",
      "éģ £",
      "å°ı åŃ¦",
      "æĹħ æ¸¸",
      "åı Ľ",
      "èĪ° éĺŁ",
      "åİ ļ",
      "Ġ -",
      "4 4",
      "æķĻ ä¼ļ",
      "çł´ åĿı",
      "æ±Ł èĭı",
      "è§£æĶ¾ åĨĽ",
      "åı ¥",
      "çļĩ å¸Ŀ",
      "o g",
      "çĬ¹ å¤ª",
      "ç® Ń",
      "éĿ¢ çļĦ",
      "æĺŁ æľŁ",
      "éĢī æīĭ",
      "æ² Ł",
      "èĮ ¶",
      "è¶ħ çº§",
      "è¡ Ķ",
      "æĺ¯ä½įäºİ ç¾İåĽ½",
      "èĴ ĭ",
      "è¾ ī",
      "èµ ´",
      "æĶ¹ ç¼ĸ",
      "æħ Ī",
      "æĻ® éĢļ",
      "æīĢ å±ŀçļĦ",
      "å¤§ å¤ļæķ°",
      "ç»§ æī¿",
      "åĩº èº«",
      "é© ¾",
      "è¿Ĳ èĲ¥",
      "199 4",
      "è¿Ľ æĶ»",
      "éĵģ éģĵ",
      "çĨ Ļ",
      "æľª èĥ½",
      "æ²³ æµģ",
      "ä¸» è§Ĵ",
      "åĢ į",
      "199 2",
      "ï¼ Ł",
      "åħ´ å»º",
      "äºĳ åįĹ",
      "æĸ¯ çļĦ",
      "a p",
      "åĽ½ ç«ĭ",
      "åĪĿ æľŁ",
      "5 8",
      "ç´ «",
      "ä¸ĭè¾ĸ ä»¥ä¸ĭ",
      "åħĥ ç´ł",
      "è· ³",
      "ç²¾ ç¥ŀ",
      "è¢Ń åĩ»",
      "ä¸Ģ ä½į",
      "ç¥ ¥",
      "æĿ¡ çº¦",
      "S T",
      "æĬķ ç¥¨",
      "é«ĺ çº§",
      "è¦ Ĩ",
      "ç¬¬ åħŃ",
      "æĻ ¶",
      "åĲį åįķ",
      "æ¯ı ä¸ª",
      "è¿Ľ ä¸ĢæŃ¥",
      "è¿Ķ åĽŀ",
      "æ¹ĸ åįĹ",
      "åŁº åľ°",
      "çłĶç©¶ æīĢ",
      "Ġ J",
      "çº ¹",
      "èİ ²",
      "åį¡ å°Ķ",
      "åİ Ħ",
      "éĩįè¦ģ çļĦ",
      "å¥³ åĦ¿",
      "åĲĮ æĦı",
      ") ï¼Į",
      "ç¼ĸ åı·",
      "æĺ¯ æĮĩ",
      "ä» ĵ",
      "äººåı£ æķ°éĩı",
      "éĽĨ ä¸Ń",
      "åĽ½ éĺ²",
      "ç»´ äºļ",
      "éļı èĳĹ",
      "ç¡® å®ļ",
      "æľ ĭ",
      "ä¸ĭ çļĦä¸Ģä¸ª",
      "æĹ º",
      "åŁº éĩĳ",
      "è¿Ľè¡Į äºĨ",
      "ç¼ ĵ",
      "199 5",
      "é ŀ",
      "æľº åħ³",
      "è° ±",
      "Ġ m",
      "èĲ §",
      "åĨ ¯",
      "å¡ ĺ",
      "7 8",
      "çī¹ å¾ģ",
      "åĬĽ éĩı",
      "æĺ¯ åĲ¦",
      "åľ¨ ç¾İåĽ½",
      "åĽ½ åĨħ",
      "å·´ è¥¿",
      "åĮ Ī",
      "å¤© æĸĩ",
      "è´ º",
      "æĸ¹ æ¡Ī",
      "è¯ķ åĽ¾",
      "äºĨ ä¸Ģä¸ª",
      "Ġ ãĢĤ",
      "æľº ä¼ļ",
      "æĭī åħĭ",
      "è§£ éĩĬ",
      "æĬ¥ éģĵ",
      "å¥ ´",
      "èĳ£ äºĭ",
      "ä¸Ĭ æĺł",
      "ç§ĺ ä¹¦",
      "r i",
      "ç¨ĭ åºı",
      "æĢ» çĲĨ",
      "ä¹Ķ æ²»",
      "äº§ ä¸ļ",
      "ä¸į æĸŃ",
      "ä» °",
      "è§Ĥ ä¼Ĺ",
      "æŃ£ åľ¨",
      "çĮ İ",
      "éĿ ĸ",
      "åıĮ æĸ¹",
      "æħ ¢",
      "åŃ Ŀ",
      "å½ Ń",
      "è¯ģ æĺİ",
      "è¥¿ çľģ",
      "çļĦä¸Ģ ç§į",
      "æ½ ĺ",
      "å¤§ ä½¿",
      "7 6",
      "å¦» åŃĲ",
      "ä¹¡ éķĩ",
      "é¦ĸ éĥ½",
      "çĲ ³",
      "åĩ ¡",
      "å§Ķ ä¼ļ",
      "c e",
      "å¥¥ æĸ¯",
      "ç»´ æĮģ",
      "æĦŁ æŁĵ",
      "çļĩ å®¶",
      "æ°Ķ åĢĻ",
      "éĴĪ å¯¹",
      "ä¹Ĳ åĽ¢",
      "çķ ª",
      "å¥½ çļĦ",
      "æĸ¯ åŁº",
      "æŁ ´",
      "ï¼Į ãĢĮ",
      "æī¹ åĩĨ",
      "æľī æĹ¶",
      "åħŃ å¹´",
      "åĽ½ åĬ¡",
      "åľ¨ è¿Ļ",
      "å°ĳ å¹´",
      "æ³ ³",
      "å¿ Ĩ",
      "åħ¬ åħĥ",
      "ä¼ ı",
      "æ°§ åĮĸ",
      "æĴ Ĵ",
      "ä¸´ æĹ¶",
      "ç¨ĭ åº¦",
      "æĶ¶ åħ¥",
      "l i",
      "æĴ ŀ",
      "195 0",
      "å¹´ è½»",
      "å¹´ è¢«",
      "å¾· éĩĮ",
      "å°ı ç»Ħ",
      "è®® éĻ¢",
      "ç£ ģ",
      "å° ĸ",
      "åĪ Ģ",
      "æİ ª",
      "æ®ĸ æ°ĳ",
      "é£İ æļ´",
      "9 9",
      "å¿« éĢŁ",
      "éĥ½ ä¼ļ",
      "äºĮ ä¸ĸ",
      "éļ¶ å±ŀäºİ",
      "199 3",
      "ãĢ Ģ",
      "çĨ Ł",
      "æľī äºĽ",
      "å±± èĦī",
      "çĵ ľ",
      "æĢ» éĥ¨",
      "ä»· åĢ¼",
      "åĽ½æ°ĳ åħļ",
      "3 00",
      "ç½ ķ",
      "æľī æķĪ",
      "é©¬ åħĭ",
      "èĳĹ åĲį",
      "é¥ ®",
      "æ §",
      "æĹ¥ åĨĽ",
      "çİ° æĹ¶",
      "å¸¸ è§ģ",
      "ä»¥ åĲİ",
      "å¹´ å¼Ģå§ĭ",
      "çļĦ å¸Ĥéķĩ",
      "è¶ £",
      "æĢĿ æĥ³",
      "åįĬ å²Ľ",
      "Ġ V",
      "ç ŀ",
      "7 7",
      "ä¸ŃåĽ½ äººæ°ĳ",
      "åį¢ çĵ¦",
      "æ¯ı å¹³æĸ¹åħ¬éĩĮ",
      "è®¨ è®º",
      "åıĸ æ¶Ī",
      "èµ ł",
      "ä»İ äºĭ",
      "åĲĪ çī©",
      "äºº åľ¨",
      "èĭ Ĺ",
      "æ³ķ åħ°",
      "æŁ ³",
      "éĩį å»º",
      "è´ ¯",
      "er s",
      "ä½įäºİ æ³ķåĽ½",
      "å°Ķ çļĦ",
      "é¬ ¼",
      "åĨ² çªģ",
      "a v",
      "5 6",
      "ä¸į åĨį",
      "åİ¿ çļĦä¸Ģä¸ª",
      "åĮ» çĸĹ",
      "199 1",
      "ä¸» é¢ĺ",
      "ä»¥ èī²",
      "ãĢģ ãĢģ",
      "ä¸ĭ åįĪ",
      "æĹł çº¿",
      "éĤĢ è¯·",
      "çĩ ķ",
      "åħ¬ æ°ĳ",
      "åĬĽ çļĦ",
      "å¦Ĥ ä¸ĭ",
      "è¿ ħ",
      "4 2",
      "éĿŀ æ´²",
      "åį« çĶŁ",
      "ä»¥èī² åĪĹ",
      "éļı çĿĢ",
      "èĳ Ľ",
      "U TC",
      "è´¢ æĶ¿",
      "ä¸» æ¼Ķ",
      "æī¿ è®¤",
      "ä¿Ŀ çķĻ",
      "æľª æĿ¥",
      "è¥¿ æ´ĭ",
      "çİĭ æľĿ",
      "é¹ ¿",
      "o v",
      "åĩ½ æķ°",
      "Ġ w",
      "ï¼ī .",
      "è ©",
      "åİ¿ çļĦ",
      "ä¸ĭè¾ĸä»¥ä¸ĭ åľ°åĮº",
      "æĻ ¨",
      "éģ Ĥ",
      "æ³ Ĭ",
      "åħģ è®¸",
      "åĽ¾ä¹¦ é¦Ĩ",
      "åģľ æŃ¢",
      "å»º æĪĲ",
      "éĥ½ æľī",
      "æµ· å²¸",
      "ç»ĵ å©ļ",
      "ç¼ ħ",
      "åĮĸ çļĦ",
      "æĺ¯ ä¸ĭè¾ĸçļĦä¸Ģä¸ª",
      "åºĶ è¯¥",
      "åĿ İ",
      "åĭ ¤",
      "197 0",
      "å¹¶ æ²¡æľī",
      "æŃ¦ è£ħ",
      "é«ĺ çŃī",
      "è·¯ æĺĵ",
      "ãĢĬ ãĢĭ",
      "æĬķ åħ¥",
      "çļĦ æķ°æį®",
      "èĭ ¦",
      "æķĻ åĮº",
      "è© ¹",
      "çĶ¨ æĪ·",
      "æĸĩ ä»¶",
      "åĩ Ń",
      "èĥľ åĪ©",
      "æĿĲ æĸĻ",
      "é«ĺ ä¸Ń",
      "å°Ķ çī¹",
      "åĩ Į",
      "5 9",
      "å± ı",
      "ä¸Ģ ä¸ĸ",
      "çĨ Ĭ",
      "Ġ in",
      "198 8",
      "194 5",
      "æĸ° å¢ŀ",
      "ä½¿çĶ¨ çļĦ",
      "éĶĢ åĶ®",
      "ar d",
      "æµĭ è¯ķ",
      "åįģ åĪĨ",
      "u t",
      "æĶ¶ å½ķ",
      "ä¸ĸçķĮ å¤§æĪĺ",
      "è®¿ éĹ®",
      "ç»ĵ åĲĪ",
      "åı¯ è¾¾",
      "å¸Ĥ éķ¿",
      "194 9",
      "æĸ¯ åħĭ",
      "ä¸º æ³ķåĽ½",
      "å Ĺ",
      "èĳĹ ä½ľ",
      "èĢĥ èĻĳ",
      "çķ Ķ",
      "è°ĥ æķ´",
      "çĶ¨ çļĦ",
      "æ¢ ¯",
      "çĶ¨ æĿ¥",
      "èĩ³ å°ĳ",
      "äººæ°ĳ æĶ¿åºľ",
      "åıª æĺ¯",
      "éĢī åĮº",
      "ä¸ŃåĽ½ åħ±äº§åħļ",
      "æ£ ĭ",
      "èµ· æĿ¥",
      "æħ ķ",
      "çİĭ åĽ½",
      "äºº æķ°",
      "åŃĲ çļĦ",
      "è§Ĥ å¯Ł",
      "ï¼ļ \"",
      "æ¡ Ĥ",
      "ä½Ľ æķĻ",
      "å®ª æ³ķ",
      "åľ° ä½į",
      "æĺ¯ ç¾İåĽ½",
      "æĲ ľ",
      "åĲ ¨",
      "æĹ§ å¸Ĥéķĩ",
      "âĢĿ ãĢģ",
      "æ¯ķä¸ļ äºİ",
      "è´¨ éĩı",
      "è¯ ļ",
      "éģĹ åĿĢ",
      "6 6",
      "çĶµ èĦĳ",
      "æİ¥ è¿ĳ",
      "ç§ Ĵ",
      "I I",
      "åĢ ¾",
      "åĪ° è¾¾",
      "ä¸į åı¯",
      "æĪĸ æĺ¯",
      "éĩĳ å±ŀ",
      "èĩªæ²» åĮº",
      "ä¿ Ĭ",
      "å®ī æİĴ",
      "çĶ³ è¯·",
      "éĶ ģ",
      "åīį çļĦ",
      "æ¯Ķ åĪ©",
      "èī² çļĦ",
      "å¼ķ åıĳ",
      "è¯´ æ³ķ",
      "éĺ¿æĭī ä¼¯",
      "æĹ¶ ä»»",
      "èĥ ¶",
      "èŀ º",
      "æĸ¹ çļĦ",
      "éĻĨ åľ°",
      "æĹ¥ çļĦ",
      "Ġ and",
      "çĽ® çļĦ",
      "ç¼ĸ è¾ĳ",
      "äºĭ ä¸ļ",
      "çŁ¥ éģĵ",
      "196 0",
      "å¹´ç¾İåĽ½ äººåı£æĻ®æŁ¥",
      "åħ¬ åĪĨ",
      "æĥ Ĭ",
      "å¸Ĥ åĮº",
      "åĽł èĢĮ",
      "éĺŁ çļĦ",
      "èģĶåĲĪ åĽ½",
      "æĺİ æĺ¾",
      "åĲ ĥ",
      "è° ĵ",
      "Ġ å¹´",
      "ä¸Ģ å¸¦",
      "éĩĮ çļĦ",
      "é ī",
      "åľ° åĪ©",
      "in d",
      "ç¬¬ ä¸ĥ",
      "æµ ®",
      "å°± è¯»",
      "è½ °",
      "ä¼¯ çī¹",
      "äº¤ æµģ",
      "éļ §",
      "ç§» åĬ¨",
      "åıĺ æĪĲ",
      "éĢĿ ä¸ĸ",
      "æ°Ķ è±¡",
      "a k",
      "åĪĽ ç«ĭ",
      "æ°ĳ ä¼Ĺ",
      "ç¢ ³",
      "ç½ ļ",
      "æĶ¯ æı´",
      "ä¹ ı",
      "éĤ®æĶ¿ ç¼ĸçłģä¸º",
      "ç² Ĵ",
      "ä»ĸ æĽ¾",
      "4 3",
      "æŃ¤ æĹ¶",
      "æĬ ļ",
      "çĶµ åı°",
      "å£« åħµ",
      "åħ ½",
      "ç ĺ",
      "ãĢģ ï¼Ī",
      "åĨį åº¦",
      "A T",
      "SE E",
      "T he",
      "çĽ´ èĩ³",
      "äººåı£æķ°éĩı ä¸ºäºº",
      "ç±³ å°Ķ",
      "å¡ ĳ",
      "= \"",
      "ç¥ĸ çĪ¶",
      "çī© è´¨",
      "æł¸ å¿ĥ",
      "å¤§ èĩ£",
      "çļĦæĹ¶ åĢĻ",
      "æĿ Ń",
      "å¸Ĥ çļĦ",
      "ï¼ļ ãĢĤ",
      "æĮ Ĥ",
      "å¤ĸ çļĦ",
      "æİ¥å£¤ çļĦå¸Ĥéķĩ",
      "æĪĺ åĲİ",
      "5 7",
      "ç¡ ķ",
      "æĢ ª",
      "æ³ ¥",
      "è¡¨ è¾¾",
      "è¿ĩç¨ĭ ä¸Ń",
      "èĥ ģ",
      "éĩį çĤ¹",
      "åģ¥ åº·",
      "è¯ ¦",
      "æİ ī",
      "èħ ¹",
      "198 9",
      "åĿ Ĭ",
      "çĶŁ éķ¿",
      "çĹ Ľ",
      "an g",
      "èĬ ³",
      "å¥¥ åľ°åĪ©",
      "å¨ģ å°Ķ",
      "é¡ µ",
      "èĹ ©",
      "æĿ¥ è¯´",
      "åĬ ±",
      "çĲĥ åľº",
      "i e",
      "åĳ½ ä»¤",
      "ä¸ľ è¥¿",
      "å°¤ åħ¶",
      "åĬŀåħ¬ å®¤",
      "æĴ °",
      "è¡ĮæĶ¿ åįķä½į",
      "å°ĳ æķ°",
      "çİ° åľº",
      "æĿ ī",
      "æĢ» çĿ£",
      "æ¨¡ åŀĭ",
      "å¦Ĥ æŃ¤",
      "çĽ Ĺ",
      "ç¾½ æ¯Ľ",
      "åħ³ æ³¨",
      "äººåı£å¯Ĩåº¦ æ¯ıå¹³æĸ¹åħ¬éĩĮ",
      "åĲĦ åľ°",
      "æľĭ åıĭ",
      "éī ´",
      "8 8",
      "u d",
      "IN SEE",
      "é«ĺ éĽĦ",
      "4 1",
      "å± ¿",
      "å°¼ æĸ¯",
      "å± ¯",
      "ãĢ ı",
      "åĮ» åŃ¦",
      "6 9",
      "ãĢ İ",
      "èĬ Ŀ",
      "çĳŀ åħ¸",
      "åįģ å¹´",
      "æĶ¿ åħļ",
      "æ²³ åĮĹ",
      "è¯¾ ç¨ĭ",
      "ä¸ĥ å¹´",
      "èĤ ĥ",
      "n d",
      "åĪĽ åĬŀ",
      "å®ī å¾·",
      "æľ¬ ç«Ļ",
      "èĳ¡èĲĦ çīĻ",
      "åħ¥ ä¾µ",
      "ä¼Ĭæĸ¯ åħ°",
      "åĩº åı£",
      "åİ¿ äºº",
      "å¢¨ è¥¿",
      "æ± ¡",
      "ç§» æ°ĳ",
      "ä¹ ³",
      "åº Ĭ",
      "ä¸Ń å±±",
      "ç§ĳ çļĦ",
      "å´ İ",
      "æĸĩ ç«ł",
      "å¤ıä»¤ æĹ¶",
      "æī °",
      "ç¦ Ħ",
      "å¸Ĥéķĩ ç¼ĸçłģä¸º",
      "ä¸º ä¸Ģ",
      "INSEE å¸Ĥéķĩç¼ĸçłģä¸º",
      "æıĲ é«ĺ",
      "èŃ¦ æĸ¹",
      "ä¼ļ çļĦ",
      "çĬ¶ åĨµ",
      "Â ł",
      "a b",
      "æģĴ æĺŁ",
      "åĴ ¸",
      "çļĦ å°ı",
      "ä¸º æ¯ı",
      "çº§ è¡ĮæĶ¿åįķä½į",
      "åľ ³",
      "æ£® æŀĹ",
      "æĹ¶çļĦ äººåı£æķ°éĩıä¸ºäºº",
      "äºİ æĹ¶çļĦäººåı£æķ°éĩıä¸ºäºº",
      "çº ¬",
      "åĭ ĥ",
      "7 9",
      "æŀĦ æĪĲ",
      "éĢī åĮºä¸º",
      "åĽ¢ éĺŁ",
      "åį ¿",
      "éļ§ éģĵ",
      "æĭ ĵ",
      "æĴŃ æĶ¾",
      "é«ĺ çļĦ",
      "æĺ¯ä¸Ģ åĲį",
      "æł¡ éķ¿",
      "æĪĸ æĹ§å¸Ĥéķĩ",
      "è¯¥ çľģä»½",
      "ç¨³ å®ļ",
      "å¤± åİ»",
      "ä¸¤ ç§į",
      "æıĲ åĲį",
      "æīĢå±ŀçļĦ çľģçº§",
      "æīĢå±ŀçļĦçľģçº§ éĢīåĮºä¸º",
      "æľĪ èĩ³",
      "ä¹¡éķĩ çº§è¡ĮæĶ¿åįķä½į",
      "çĽ¸ ä¼¼",
      "ãĢĭ ï¼Īï¼ī",
      "é Ħ",
      "çİ° è±¡",
      "æı Ĵ",
      "è¯ ŀ",
      "çº ·",
      "çļĦ çłĶç©¶",
      "198 4",
      "å§Ĩ æĸ¯",
      "æ¶Ī æģ¯",
      "åŃ¦ æľ¯",
      "ç¾ Ĭ",
      "åĢĻ éĢī",
      "åİĨåı² ä¸Ĭ",
      "æħ §",
      "è¯¥çľģä»½ ä¸ºæ³ķåĽ½",
      "ç¦ģ æŃ¢",
      "èģĮ åĬ¡",
      "åĳ¨ è¾¹",
      "S A",
      "å·¥ åİĤ",
      "ä» ²",
      "åıª èĥ½",
      "æķĪ åĬĽ",
      "å¢¨è¥¿ åĵ¥",
      "å¼ ĺ",
      "å®¢ è¿Ĳ",
      "çĳŀ å£«",
      "åį« æĺŁ",
      "æķ° åŃĹ",
      "éĩį åºĨ",
      "çĶ ¸",
      "ä¸Ģ åº¦",
      "éĺ ħ",
      "Ġ formula",
      "æĵį ä½ľ",
      "æľº æ¢°",
      "èĽ ĩ",
      "å¹¿ åĳĬ",
      "çĮ «",
      "åĲĮ ä¸Ģ",
      "åı¯èĥ½ æĺ¯",
      "èĢĮ æĺ¯",
      ") ãĢĤ",
      "ç¥ Ŀ",
      "å§ĭ å»ºäºİ",
      "åįĹ åĮĹ",
      "åĬ¨ åĬĽ",
      "ä¸į å¾Ĺ",
      "ä¸ §",
      "è· ĥ",
      "åĪĹ ä¸º",
      "æĽ´ åĲįä¸º",
      "çľĭ åĪ°",
      "å² ³",
      "Ġ ï¼Į",
      "çĶŁ åĳ½",
      "æĺ¯ä¸ĭè¾ĸçļĦä¸Ģä¸ª ä¹¡éķĩçº§è¡ĮæĶ¿åįķä½į",
      "åįĹ æŀģ",
      "å¹¶ æľª",
      "å£ ³",
      "n e",
      "èĽĭ çĻ½",
      "å»º åĪ¶",
      "N A",
      "ï ½",
      "æĬµ è¾¾",
      "S t",
      "çĮ ª",
      "åĸ Ģ",
      "çļĦ é¦ĸ",
      "6 7",
      "æĻ ĵ",
      "5 1",
      "ä¹Ł åľ¨",
      "ä¿¡ åı·",
      "ç¨ĭ å¼ı",
      "éģ¿ åħį",
      "å½ »",
      "198 5",
      "ä¸į æĺİ",
      "è ¹",
      "éħĴ åºĹ",
      "å°Ķ åħ°",
      "5 2",
      "æŁĲ äºĽ",
      "å°ļ æľª",
      "äºº å¤§",
      "å¤± è´¥",
      "ĠS t",
      "åľ° éľĩ",
      "æ°´ å¹³",
      "æĸ ĳ",
      "æĹ ¦",
      "çī¹ æ®Ĭ",
      "åį ĵ",
      "åħ« å¹´",
      "æĺ¯ä¸Ģ ä½į",
      "äºļ åİĨ",
      "åı° åįĹ",
      "æ³¨ æĦı",
      "å¾ ª",
      "åı¬ å¼Ģ",
      "èĩª è¡Į",
      "è¯ ¢",
      "æį Ĳ",
      "çļĦ éĤ®æĶ¿ç¼ĸçłģä¸º",
      "å½ĵæĹ¶ çļĦ",
      "å±Ĭ åħ¨åĽ½",
      "æĶ¿ æĿĥ",
      "ç¿» è¯ĳ",
      "Ġ f",
      "å¾Ĺ ä»¥",
      "æĴ¤ éĶĢ",
      "æĵ İ",
      "æľī äºº",
      "ä¸Ģ åĲĮ",
      "åŀ Ĵ",
      "èº« ä½ĵ",
      "çļĦ æĸ¹å¼ı",
      "æĻ® éģį",
      "åıĳ çĶµ",
      "èģĶ ç³»",
      "å½¼ å¾Ĺ",
      "æ´ Ĺ",
      "æıĲ åįĩ",
      "çļĦ æĦı",
      "ä»İ èĢĮ",
      "åŃ© åŃĲ",
      "åħ¥ åı£",
      "ä½ĵ ç³»",
      "âĢĿãĢģ âĢľ",
      "ä»ª å¼ı",
      "æĲ ¬",
      "å¸Ĥ æ°ĳ",
      "åį ĳ",
      "çī ł",
      "ic e",
      "åħ¨ éķ¿",
      "é¼ ł",
      "ç»´ å¥ĩ",
      "è¢ ĸ",
      "198 6",
      "åŁĥ å°Ķ",
      "å® ı",
      "æĮĳ æĪĺ",
      "èĪ Ĵ",
      "ç¢ į",
      "è¥¿ æĸ¹",
      "æ²³ çķĶ",
      "ï¼Ī ï¼Ľ",
      "è¡¨ æĺİ",
      "åĽĽ ä¸ª",
      "ä»ĸ æĺ¯",
      "ä¸į è¶³",
      "å¹´å¤ıåŃ£ å¥¥æŀĹåĮ¹åħĭè¿ĲåĬ¨ä¼ļ",
      "å¯¹ æīĭ",
      "çī¹ çļĦ",
      "å¨ģ èĥģ",
      "èĳĹ åĲįçļĦ",
      "å¸ĥ é²ģ",
      "æĹ ¨",
      "æĪ Ĵ",
      "åĽ½åĬ¡ éĻ¢",
      "å® Ļ",
      "6 2",
      "æĪĲä¸º äºĨ",
      "ä»ĭ ç»į",
      "æ¡Ī ä»¶",
      "å½ĵ å±Ģ",
      "æĪĲç«ĭ äºİ",
      "é¸ ¡",
      "äºĭ å®ŀ",
      "å¹³æĸ¹ ç±³",
      "æĹ ¢",
      "æķ° åŃ¦",
      "5 4",
      "ä¸ ²",
      "éľ ¸",
      "åıĪ åĲį",
      "in e",
      "åĴĮ åħ¶ä»ĸ",
      "çĶµ åĬĽ",
      "Ġ çļĦ",
      "éĥ Ĭ",
      "çļĦä¸Ģ åº§",
      "æ°ĳä¸» åħļ",
      "Ġ U",
      "çļĦ æµ·",
      "åĪĽ éĢł",
      "198 7",
      "åħ¬ ä¼Ĺ",
      "æ¬¢ è¿İ",
      "äº Ń",
      "æĺ¯ æĹ¥æľ¬",
      "éĩĳ èŀį",
      "æĬ¥ å¯¼",
      "æĦŁ åĪ°",
      "ä¼° è®¡",
      "åıĳ èµ·",
      "ç¡® è¯Ĭ",
      "å¤§ è¥¿æ´ĭ",
      "å¤ĸ åĽ½",
      "å¼ķ æĵİ",
      "o b",
      "çļĦ åİŁ",
      "çİ Ħ",
      "æĹ© å¹´",
      "çĦ ¦",
      "å¯ Ħ",
      "èĦ Ĥ",
      "éĩĩ åıĸ",
      "çİ »",
      "B A",
      "5 3",
      "æķĻ ç»ĥ",
      "åī ©",
      "o k",
      "ç® ±",
      "t w",
      "è± Ĩ",
      "æ¹ĸ åĮĹ",
      "å¤§ éģĵ",
      "èµĦ è®¯",
      "éĵ ¾",
      "å®ī å¾½",
      "çļĦ ç¬¬ä¸Ģ",
      "èı² å¾ĭ",
      "T V",
      "èı²å¾ĭ å®¾",
      "åĩº æĪĺ",
      "ä¹Ŀ å¹´",
      "å¥ ĳ",
      "ä¹ ¾",
      "çĸ ı",
      "igh t",
      "å¹´ åºķ",
      "åħ¬ ä¸»",
      "çĪ± å°Ķåħ°",
      "åŃĹ æ¯į",
      "æĭī å¤«",
      "ç»Ļ äºĪ",
      "æ° ¢",
      "èĲ¥ è¿Ĳ",
      "ä¹Ł è¢«",
      "å° ī",
      "4 00",
      "C h",
      "æĿĥ åĬĽ",
      "ä¹Ł ä¼ļ",
      "ä» ¿",
      "åħ¶ å®ĥ",
      "åĵĪ å°Ķ",
      "è´Ń ä¹°",
      "åĨĽ çļĦ",
      "åĲ¯ çĶ¨",
      "å¹´ åĴĮ",
      "åħ¥ éĢī",
      "åĲİ èĢħ",
      "t ion",
      "æĹħ å®¢",
      "éĩĮ äºļ",
      "çĭ ®",
      "æ¾³ æ´²",
      "åĨ¬ åŃ£",
      "ç½ĳ è·¯",
      "è§Ħ åĪĻ",
      "æľĢåĲİ ä¸Ģ",
      "è¡ °",
      "æŀ ¢",
      "å¥ĸ é¡¹",
      "åĪ ¸",
      "ä¹ĺ å®¢",
      "æĸ¯ å¡Ķ",
      "çĲĨ äºĭ",
      "æĤ ¬",
      "å±ŀ ä¸ĭçļĦä¸Ģä¸ª",
      "çİ° ä»»",
      "çĹħ ä¾ĭ",
      "æĶ¾ å¼ĥ",
      "æĸ° çĸĨ",
      "å·¥ äºº",
      "15 0",
      "åŃ¦ ä¼ļ",
      "åı° ä¸Ń",
      "ç² ¹",
      "èµ Ĳ",
      "åıĹ ä¼¤",
      "èĢ Ģ",
      "æº ¶",
      "ä»Ģ ä¹Ī",
      "æŃ §",
      "7 2",
      "ä¹Ŀ é¾Ļ",
      "æī ®",
      "åĮĹ ç¾İ",
      "çĸ« æĥħ",
      "æ³° åĽ½",
      "èį¯ çī©",
      "æĭī ä¸ģ",
      "å®ī è£ħ",
      "æµģ åŁŁ",
      "ä½ĵ éķ¿",
      "æĢ§ è´¨",
      "èĮ Ĥ",
      "åıĳ åĩº",
      "å¹¶ éĿŀ",
      "çŁ¥ è¯Ĩ",
      "åĸľ æ¬¢",
      "èĤ¡ ä»½",
      "ç¬ ĳ",
      "åħ¶ ä½Ļ",
      "çł ²",
      "å´ Ķ",
      "ä¾ ¦",
      "æľ¬ èº«",
      "è¿ħ éĢŁ",
      "è¾¾ æĪĲ",
      "æİ¥ è§¦",
      "éĩĳ çīĮ",
      "ä¼ Ļ",
      "ä¼ł æĴŃ",
      "å£ ®",
      "åĵģ çīĮ",
      "åı° é£İ",
      "åħī ç»ª",
      "æľ¬ åľŁ",
      "ä¸Ńåħ± ä¸Ńå¤®",
      "æĸĩ åŃĹ",
      "äº¦ æľī",
      "9 8",
      "æ·± åľ³",
      "ç«ŀ äºī",
      "è¾ĵ åħ¥",
      "çļĦ ç¬¬",
      "é©¬ å°Ķ",
      "6 1",
      "è¡ į",
      "el l",
      "198 2",
      "è¢ ģ",
      "å¼º çĥĪ",
      "ä¹ĭ ä¸ĭ",
      "ä¸ĩ åħĥ",
      "åŁºçĿ£ æķĻ",
      "æ¸ Ķ",
      "è¿Ļ æ¬¡",
      "æ¬§ åħĥ",
      "åŁĥ åıĬ",
      "æ¹ ¿",
      "ç»ĵæĿŁ åĲİ",
      "è¾¹ çķĮ",
      "æĦı ä¸º",
      "æµ ĵ",
      "ç¼º ä¹ı",
      "ç¿ ģ",
      "è§Ĥ çĤ¹",
      "æµ· åŁŁ",
      "åľŁ èĢ³",
      "åı Ķ",
      "å®¹ æĺĵ",
      "åĮ» çĶŁ",
      "åħ±æľī äººåı£",
      "çļĦ åľ°æĸ¹",
      "å½ °",
      "ï¼Ī \"",
      "ä¸ĩ ç¾İåħĥ",
      "æ¬ ²",
      "èĢĮ è¢«",
      "is t",
      "æµ ħ",
      "åľŁèĢ³ åħ¶",
      "åħĭ éĩĮ",
      "éĢ Ĵ",
      "è´¡ çĮ®",
      "æĿĳ åºĦ",
      "ä¼ł è¯´",
      "å¿ĥ çĲĨ",
      "äºº åĴĮ",
      "èį£ èªī",
      "198 3",
      "æİª æĸ½",
      "åĩºçİ° åľ¨",
      "çī µ",
      "ä¸ľ æĸ¹",
      "è¾ ©",
      "å¾ĭ å¸Ī",
      "å¹³ éĿ¢",
      "æµ ©",
      "å¢ŀ éķ¿",
      "åĲ¸ å¼ķ",
      "è¥¿ èĹı",
      "å² Ĺ",
      "æŃ¦ æ±ī",
      "ä¼Ĭ æľĹ",
      "è´ ŀ",
      "åįģ ä¸Ģ",
      "å¤º å¾Ĺ",
      "åıĤ èĢĥ",
      "ä¸ĵ å®¶",
      "è´ ´",
      "å»¶ ä¼¸",
      "åĬł åĪ©",
      "ä¸» å¼ł",
      "å¤į æĿĤ",
      "C D",
      "æĽ´ å¤ļ",
      "å®Į æķ´",
      "æĦı è¯Ĩ",
      "ï½ ŀ",
      "ç² ¤",
      "äºĭ æķħ",
      "æ¼ĶåĶ± ä¼ļ",
      "å· §",
      "çĹĩ çĬ¶",
      "åĮĪ çīĻ",
      "æ¯ĶèµĽ ä¸Ń",
      "æī§ å¯¼",
      "åİ ĺ",
      "æİĪ äºĪ",
      "çİĽ ä¸½",
      "ä¿¡ ä»°",
      "ç§¯ æŀģ",
      "es s",
      "åĩº éģĵ",
      "åĮĪçīĻ åĪ©",
      "èĲ¨ åħĭ",
      "æĬ ½",
      "6 3",
      "å®ŀéĻħ ä¸Ĭ",
      "åħ¨ éĿ¢",
      "çĽ ¾",
      "å¹¶ å°Ĩ",
      "èĭ± éĽĦ",
      "7 1",
      "åľ¨ ä¸ŃåĽ½",
      "å¸ĥ æĭī",
      "æĿĥ åĪ©",
      "æ» ©",
      "åį ľ",
      "åħ¬åı¸ çļĦ",
      "è¡¨ éĿ¢",
      "æĮī çħ§",
      "æłĩ å¿Ĺ",
      "å° Ŀ",
      "èĢĮ æĪĲ",
      "çŁ¥ åİ¿",
      "åĸ ·",
      "åŁº åĽł",
      "å¦Ĥ ä½ķ",
      "çİĩ é¢Ĩ",
      "è¸ ª",
      "æĿ Ĩ",
      "äºļåİĨ å±±",
      "æ¶ī åıĬ",
      "çĸ¾ çĹħ",
      "ä¸ĸçķĮ æĿ¯",
      "åĨħ éĺģ",
      "æłĩ ä¸º",
      "éĴ ¦",
      "çŃ¾ ç½²",
      "åĽł ç´ł",
      "äºº å·¥",
      "ç¾İ æľ¯",
      "åĲİ æľŁ",
      "çľģ åĴĮ",
      "è£ħ çĶ²",
      "ä½ľ èĢħ",
      "u p",
      "åı¯èĥ½ ä¼ļ",
      "Ġ 2",
      "æŃ ĩ",
      "é² į",
      "çļĦ é«ĺ",
      "éĺŁ ä¼į",
      "æĭ ³",
      "å°Ĩ ä¼ļ",
      "18 0",
      "çª Ĺ",
      "âĢĭâĢĭâĢĭâĢĭ âĢĭâĢĭâĢĭâĢĭ",
      "æ°ĳ éĹ´",
      "è£ħ ç½®",
      "çº¢ èī²",
      "ç² ®",
      "æİ¨ åĬ¨",
      "åĩº å¸Ń",
      "å° ¸",
      "éľĢ æ±Ĥ",
      "çº¦ ä¸º",
      "æµ· æ´ĭ",
      "æľī æīĢ",
      "åıĳ åĶ®",
      "éĵ º",
      "æīĵ åĩ»",
      "çĶŁ æĢģ",
      "èĲ¨ æĸ¯",
      "l y",
      "å§Ķ ä¹¦è®°",
      "å£° æĺİ",
      "å¤Ħ çļĦ",
      "å®ŀ è¡Į",
      "åı¤ ä»£",
      "è¿ Ł",
      "å¼ ¥",
      "ä¸ Ī",
      "Â °",
      "éĻ¢ éķ¿",
      "ç®Ģ ä»ĭ",
      "æ» ļ",
      "èį Ĵ",
      "æĿ¥ åĪ°",
      "æĳ ĩ",
      "é«ĺéĢŁ åħ¬è·¯",
      "æķĻ å¸Ī",
      "ar t",
      "å±ķ ç¤º",
      "åľ° éĿ¢",
      "ç¤¾ä¼ļ ä¸»ä¹ī",
      "âĢ¦ âĢ¦",
      "å¸Ī èĮĥ",
      "é¢Ĩ åľŁ",
      "å¡ «",
      "ç®Ģ åįķ",
      "han s",
      "åı°åĮĹ å¸Ĥ",
      "å¦ ĥ",
      "æľī ä¸Ģä¸ª",
      "å±Ģ éķ¿",
      "å®ļ ä¸º",
      "èģ ĺ",
      "å²ģ çļĦ",
      "çŁ¥ åĲį",
      "åĵ² åŃ¦",
      "è´ «",
      "197 9",
      "å°¼äºļ å·ŀ",
      "ä¸į æ»¡",
      "èĬ Ĵ",
      "æįŁ å¤±",
      "çħ ¤",
      "è ²",
      "åľ° çĤ¹",
      "çĪ¶ æ¯į",
      "èĤ ¥",
      "å°ı çļĦ",
      "èĭ± å°º",
      "ä¹Ĳ éĺŁ",
      "æĻļ ä¸Ĭ",
      "å®ĩ å®Ļ",
      "åľ¨ ä¸Ģ",
      "ç¯® çĲĥ",
      "å¹´ çĶ±",
      "æŁ Ķ",
      "è¢«è®¤ä¸º æĺ¯",
      "ä½ı å®ħ",
      "åįģ åŃĹ",
      "7 3",
      "åİĭ åĬĽ",
      "æķĻ åŃ¦",
      "e b",
      "éĥ¨ èĲ½",
      "åıĤåĬł äºĨ",
      "ä¸ī è§Ĵ",
      "äº¿ åħĥ",
      "å·¥ åħ·",
      "å¹¿ä¸ľ çľģ",
      "es t",
      "åī ²",
      "æīį èĥ½",
      "æĪı åī§",
      ". .",
      "åĳ½ åĲįä¸º",
      "è½¯ ä»¶",
      "é¹ °",
      "é³į é±¼",
      "å¼º è°ĥ",
      "ä¸Ń éĹ´",
      "éķ¿ åº¦",
      "æ·· åĲĪ",
      "æ³ķ æ¡Ī",
      "é¢Ĩ è¢ĸ",
      "ç¾½æ¯Ľ çĲĥ",
      "è¯ģ æį®",
      "èĪŀ åı°",
      "ç¥ŀ ç»ı",
      "ç¨ ¿",
      "ä½ľ æĽ²",
      "ç±³ çļĦ",
      "æĺ¯ ä»¥",
      "æĬĹ è®®",
      "æı Ń",
      "7 4",
      "éĤ£ éĩĮ",
      "åı¦ ä¸Ģä¸ª",
      "æķĪ æŀľ",
      "å£° ç§°",
      "éĻį ä½İ",
      "å¥¹ åľ¨",
      "éĺ ª",
      "ä¸¾è¡Į çļĦ",
      "ä¸ĵ éĹ¨",
      "èµ ¶",
      "çĽ¸ æ¯Ķ",
      "å» Ĭ",
      "æĽ´ åĬł",
      "ä» ĳ",
      "æĺİ æ²»",
      "éĿ¢ å¯¹",
      "ä»£è¡¨ åĽ¢",
      "; }-",
      "éĺ ®",
      "æŃ£ å¸¸",
      "åĩº æĿ¥",
      "å¤ļ ç§į",
      "ç¡® è®¤",
      "Y ou",
      "æŀ Ŀ",
      "é¡¾ éĹ®",
      "æĶ¶ è´Ń",
      "ä¸ĭ å±ŀ",
      "ä¹Ł åı¯ä»¥",
      "197 8",
      "ä¹¾ éļĨ",
      "å¼Ģ éĢļ",
      "çļĦ éĩįè¦ģ",
      "çı Ĭ",
      "åĨ Ĵ",
      "å¯¹ æŃ¤",
      "è£ ķ",
      "é¥ Ń",
      "ä¸ Ļ",
      "åĽĽ åįģ",
      "ä¿ ĺ",
      "p h",
      "å¹¿ è¥¿",
      "çļĦ åĽ½å®¶",
      "å« Į",
      "ä¸İ åħ¶ä»ĸ",
      "éĥ½ å¸Ĥ",
      "åľ¨ åħ¶",
      "åħ³ éĹŃ",
      "ä¹¡ è¯ķ",
      "ä»¥ åīį",
      "æ ĩ",
      "ä¸ľ åĮĹéĥ¨",
      "9 5",
      "éĢ ¢",
      "åı¸ æ³ķ",
      "å¤ ·",
      "å¤ª ç©º",
      "éĽ ĩ",
      "åıĳçİ° äºĨ",
      "é¸ ¿",
      "ç§į æĹı",
      "æºĲ äºİ",
      "æ¬ £",
      "æĦı ä¹ī",
      "å¹´ åīį",
      "çĬ¯ ç½ª",
      "çĻ½ èī²",
      "ä¸ŃåĽ½äººæ°ĳ è§£æĶ¾åĨĽ",
      "å¹¶ åħ¥",
      "èĨ ľ",
      "ç»ı éªĮ",
      "æĢ Ĵ",
      "èĥ İ",
      "åıĤ è°ĭ",
      "æĸ ľ",
      "é©¾ é©¶",
      "å¸ ħ",
      "è¾Ĳ é³įé±¼",
      "å²ģ æĹ¶",
      "æŃ¥ åħµ",
      "ä¹ĭ ä¸Ń",
      "éĤ ¨",
      "ä¸Ĭ åįĪ",
      "å¯ ¨",
      "å¾Ī å¿«",
      "ä¸¾ äºº",
      "çĲĥ ä¼ļ",
      "åĲĪ æĪĲ",
      "çļĦ ä½ľåĵģ",
      "æŁı æŀĹ",
      "åħĭ èİ±",
      "è¾Ĳé³įé±¼ çº²",
      "åıĺ å¾Ĺ",
      "æĬ ¢",
      "Ġ 1",
      "åĲ ¾",
      "æ´ ģ",
      "æ¶ ¦",
      "åħĪ çĶŁ",
      "åŀĭ çļĦ",
      "å¸ĥ å°Ķ",
      "æĶ¹ éĢł",
      "åĢĻéĢī äºº",
      "è½¬ ç§»",
      "ç¡ķ å£«",
      "æģĲ æĢ",
      "Ġ a",
      "åĮĹ èµ·",
      "è¯¥ åľ°çļĦ",
      "æĹł äºº",
      "ä¸ĭ éĻį",
      "çĭ Ĥ",
      "æĮ ª",
      "å¹´ åĪĿ",
      "ä»£è¡¨ å¤§ä¼ļ",
      "æĶ¹ åĸĦ",
      "å¼Ģ è®¾",
      "åĬŀ äºĭ",
      "194 6",
      "åĪ¶ çļĦ",
      "é£Ł çī©",
      "åĥ §",
      "æ· ®",
      "èħ ¾",
      "åĮĹäº¬ å¸Ĥ",
      "éĻĦè¿ĳ çļĦ",
      "ï¼ļ ï¼īï¼Į",
      "éħį åĲĪ",
      "æµ· å³¡",
      "çļĦæĥħåĨµ ä¸ĭ",
      "åĩł ä¸ª",
      "åº ŀ",
      "äººåı£å¯Ĩåº¦ ä¸ºæ¯ı",
      "æ¯Ķ ä¾ĭ",
      "iv e",
      "é£İ éĻ©",
      "h k",
      "é©± éĢĲ",
      "èĢ Ĺ",
      "åĬ¿ åĬĽ",
      "åĤ ħ",
      "éĢĢ å½¹",
      "èĤ º",
      "ç¥¨ æĪ¿",
      "198 1",
      "åįİ çĽĽ",
      "åĽŀ åºĶ",
      "äº¨ åĪ©",
      "åĽ½å®¶ éĺŁ",
      "åį³ ä½¿",
      "åĩº æ¼Ķ",
      "å½ĵ å¹´",
      "åĿ¦ åħĭ",
      "è¦Ĩ çĽĸ",
      "åł ª",
      "èĭı æł¼åħ°",
      "Ġ 3",
      "å¤§ å¥ĸ",
      "æ¸© åº¦",
      "ä¸į ä»ħ",
      "æľº åĻ¨",
      "éĩı çļĦ",
      "æµ· å¤ĸ",
      "è¯· æ±Ĥ",
      "å¯¹ è±¡",
      "ç½ ¢",
      "è£ħ å¤ĩ",
      "æī© å¤§",
      "8 5",
      "å¹´ç¾İåĽ½äººåı£æĻ®æŁ¥ çļĦæķ°æį®",
      "è Ł",
      "åįİçĽĽ é¡¿",
      "ä¸Ģ æĿ¡",
      "åįĹ æĸ¹",
      "äººåı£å¯Ĩåº¦ä¸ºæ¯ı å¹³æĸ¹åįĥç±³",
      "æ°Ķ æĹĭ",
      "æī¾ åĪ°",
      "ä¿Ŀ ç½Ĺ",
      "åľ¨ è¯¥",
      "ä¸Ń æľī",
      "çģ« ç®Ń",
      "ç»ı çĲĨ",
      "å½ĵåľ° åħ±æľīäººåı£",
[...]
